{
  "version": "1.0",
  "truncation": null,
  "padding": null,
  "added_tokens": [
    {
      "id": 0,
      "content": "<|endoftext|>",
      "single_word": false,
      "lstrip": false,
      "rstrip": false,
      "normalized": false,
      "special": true
    }
  ],
  "normalizer": null,
  "pre_tokenizer": {
    "type": "Sequence",
    "pretokenizers": [
      {
        "type": "Digits",
        "individual_digits": true
      },
      {
        "type": "ByteLevel",
        "add_prefix_space": false,
        "trim_offsets": true,
        "use_regex": true
      }
    ]
  },
  "post_processor": null,
  "decoder": {
    "type": "ByteLevel",
    "add_prefix_space": true,
    "trim_offsets": true,
    "use_regex": true
  },
  "model": {
    "type": "BPE",
    "dropout": null,
    "unk_token": null,
    "continuing_subword_prefix": null,
    "end_of_word_suffix": null,
    "fuse_unk": false,
    "byte_fallback": false,
    "vocab": {
      "<|endoftext|>": 0,
      "!": 1,
      "\"": 2,
      "#": 3,
      "$": 4,
      "%": 5,
      "&": 6,
      "'": 7,
      "(": 8,
      ")": 9,
      "*": 10,
      "+": 11,
      ",": 12,
      "-": 13,
      ".": 14,
      "/": 15,
      "0": 16,
      "1": 17,
      "2": 18,
      "3": 19,
      "4": 20,
      "5": 21,
      "6": 22,
      "7": 23,
      "8": 24,
      "9": 25,
      ":": 26,
      ";": 27,
      "<": 28,
      "=": 29,
      ">": 30,
      "?": 31,
      "@": 32,
      "A": 33,
      "B": 34,
      "C": 35,
      "D": 36,
      "E": 37,
      "F": 38,
      "G": 39,
      "H": 40,
      "I": 41,
      "J": 42,
      "K": 43,
      "L": 44,
      "M": 45,
      "N": 46,
      "O": 47,
      "P": 48,
      "Q": 49,
      "R": 50,
      "S": 51,
      "T": 52,
      "U": 53,
      "V": 54,
      "W": 55,
      "X": 56,
      "Y": 57,
      "Z": 58,
      "[": 59,
      "\\": 60,
      "]": 61,
      "^": 62,
      "_": 63,
      "`": 64,
      "a": 65,
      "b": 66,
      "c": 67,
      "d": 68,
      "e": 69,
      "f": 70,
      "g": 71,
      "h": 72,
      "i": 73,
      "j": 74,
      "k": 75,
      "l": 76,
      "m": 77,
      "n": 78,
      "o": 79,
      "p": 80,
      "q": 81,
      "r": 82,
      "s": 83,
      "t": 84,
      "u": 85,
      "v": 86,
      "w": 87,
      "x": 88,
      "y": 89,
      "z": 90,
      "{": 91,
      "|": 92,
      "}": 93,
      "~": 94,
      "¡": 95,
      "¢": 96,
      "£": 97,
      "¤": 98,
      "¥": 99,
      "¦": 100,
      "§": 101,
      "¨": 102,
      "©": 103,
      "ª": 104,
      "«": 105,
      "¬": 106,
      "®": 107,
      "¯": 108,
      "°": 109,
      "±": 110,
      "²": 111,
      "³": 112,
      "´": 113,
      "µ": 114,
      "¶": 115,
      "·": 116,
      "¸": 117,
      "¹": 118,
      "º": 119,
      "»": 120,
      "¼": 121,
      "½": 122,
      "¾": 123,
      "¿": 124,
      "Â": 125,
      "Ã": 126,
      "Ä": 127,
      "Å": 128,
      "Æ": 129,
      "Ç": 130,
      "È": 131,
      "É": 132,
      "Ê": 133,
      "Ë": 134,
      "Ì": 135,
      "Í": 136,
      "Î": 137,
      "Ï": 138,
      "Ð": 139,
      "Ñ": 140,
      "Ò": 141,
      "Ó": 142,
      "Ô": 143,
      "Õ": 144,
      "Ö": 145,
      "×": 146,
      "Ø": 147,
      "Ù": 148,
      "Ú": 149,
      "Û": 150,
      "Ü": 151,
      "Ý": 152,
      "Þ": 153,
      "ß": 154,
      "à": 155,
      "á": 156,
      "â": 157,
      "ã": 158,
      "ä": 159,
      "å": 160,
      "æ": 161,
      "ç": 162,
      "è": 163,
      "é": 164,
      "ê": 165,
      "ë": 166,
      "ì": 167,
      "í": 168,
      "î": 169,
      "ï": 170,
      "ð": 171,
      "ó": 172,
      "ô": 173,
      "ĉ": 174,
      "Ċ": 175,
      "Č": 176,
      "Ġ": 177,
      "Ģ": 178,
      "ģ": 179,
      "Ĥ": 180,
      "ĥ": 181,
      "Ħ": 182,
      "ħ": 183,
      "Ĩ": 184,
      "ĩ": 185,
      "Ī": 186,
      "ī": 187,
      "Ĭ": 188,
      "ĭ": 189,
      "Į": 190,
      "į": 191,
      "İ": 192,
      "ı": 193,
      "Ĳ": 194,
      "ĳ": 195,
      "Ĵ": 196,
      "ĵ": 197,
      "Ķ": 198,
      "ķ": 199,
      "ĸ": 200,
      "Ĺ": 201,
      "ĺ": 202,
      "Ļ": 203,
      "ļ": 204,
      "Ľ": 205,
      "ľ": 206,
      "Ŀ": 207,
      "ŀ": 208,
      "Ł": 209,
      "ł": 210,
      "Ń": 211,
      "Ġt": 212,
      "Ġa": 213,
      "in": 214,
      "he": 215,
      "re": 216,
      "on": 217,
      "er": 218,
      "Ġthe": 219,
      "Ġs": 220,
      "at": 221,
      "Ġo": 222,
      "en": 223,
      "Ġw": 224,
      "it": 225,
      "Ġc": 226,
      "or": 227,
      "nd": 228,
      "es": 229,
      "is": 230,
      "ĠĠ": 231,
      "Ġf": 232,
      "ing": 233,
      "al": 234,
      "Ġp": 235,
      "an": 236,
      "Ġb": 237,
      "ed": 238,
      "ou": 239,
      "ar": 240,
      "Ġof": 241,
      "Ġin": 242,
      "Ġm": 243,
      "Ġto": 244,
      "Ġand": 245,
      "Ġd": 246,
      "ic": 247,
      "ion": 248,
      "le": 249,
      "as": 250,
      "om": 251,
      "Ġh": 252,
      "Ġth": 253,
      "ent": 254,
      "il": 255,
      "st": 256,
      "ro": 257,
      "el": 258,
      "Ġl": 259,
      "Ġre": 260,
      "ct": 261,
      "Ġn": 262,
      "et": 263,
      "Ġe": 264,
      "ĠĠĠĠ": 265,
      "ĠS": 266,
      "ĠT": 267,
      "ĠI": 268,
      "Ġg": 269,
      "ve": 270,
      "id": 271,
      "ut": 272,
      "ĠC": 273,
      "ĠA": 274,
      "ot": 275,
      "ol": 276,
      "Ġis": 277,
      "ra": 278,
      "im": 279,
      "ur": 280,
      "Ġfor": 281,
      "ly": 282,
      "ig": 283,
      "Ġon": 284,
      "Ġy": 285,
      "ce": 286,
      "Ġbe": 287,
      "ow": 288,
      "us": 289,
      "ation": 290,
      "ch": 291,
      "am": 292,
      "ay": 293,
      "ver": 294,
      "ad": 295,
      "ĠM": 296,
      "Ġthat": 297,
      "Ġst": 298,
      "ith": 299,
      "ir": 300,
      "Ġyou": 301,
      "ĠP": 302,
      "ĠB": 303,
      "Ġwith": 304,
      "ul": 305,
      "Ġhe": 306,
      "un": 307,
      "Ġit": 308,
      "se": 309,
      "ter": 310,
      "Ġ(": 311,
      "'s": 312,
      "Ġas": 313,
      "Ġan": 314,
      "if": 315,
      "Ġal": 316,
      "Ġwh": 317,
      "em": 318,
      "ĠH": 319,
      "ĠD": 320,
      "ill": 321,
      "Ġcon": 322,
      "ers": 323,
      "ĠW": 324,
      "ag": 325,
      "Ġpro": 326,
      "od": 327,
      "ĠR": 328,
      "ri": 329,
      "ĠF": 330,
      "Ġwe": 331,
      "est": 332,
      "ac": 333,
      "her": 334,
      "ist": 335,
      "ate": 336,
      "ab": 337,
      "pp": 338,
      "um": 339,
      "ĠThe": 340,
      "th": 341,
      "ess": 342,
      "Ġcom": 343,
      "Ġare": 344,
      "Ġat": 345,
      "ke": 346,
      "ĠL": 347,
      "Ġv": 348,
      "Ġha": 349,
      "Ġde": 350,
      "ld": 351,
      "op": 352,
      "ore": 353,
      "Ġwas": 354,
      "qu": 355,
      "ew": 356,
      "Ġor": 357,
      "rom": 358,
      "ĠN": 359,
      "ĠE": 360,
      "ĠG": 361,
      "ity": 362,
      "res": 363,
      "ht": 364,
      "Ġex": 365,
      "os": 366,
      "ect": 367,
      "oc": 368,
      "ment": 369,
      "ort": 370,
      "ant": 371,
      "and": 372,
      "Ġ\"": 373,
      "Ġse": 374,
      "ain": 375,
      "art": 376,
      "Ġby": 377,
      "ies": 378,
      "Ġsu": 379,
      "iv": 380,
      "Ġfrom": 381,
      "ĠĠĠ": 382,
      "nt": 383,
      "ive": 384,
      "end": 385,
      "Ġr": 386,
      "ĠJ": 387,
      "ust": 388,
      "Ġthis": 389,
      "ĠĠĠĠĠĠĠĠ": 390,
      "ĠO": 391,
      "Ġnot": 392,
      "Ġhave": 393,
      "Ġsh": 394,
      "ud": 395,
      "ight": 396,
      "Ġch": 397,
      "all": 398,
      "âĢ": 399,
      "Ġu": 400,
      "our": 401,
      "red": 402,
      "ard": 403,
      "Ġle": 404,
      "ial": 405,
      "out": 406,
      "Ġus": 407,
      "pt": 408,
      "ould": 409,
      "ear": 410,
      "ell": 411,
      "ge": 412,
      "ost": 413,
      "Ġcan": 414,
      "Ġwor": 415,
      "The": 416,
      "rou": 417,
      "og": 418,
      "ure": 419,
      "ome": 420,
      "pe": 421,
      "ine": 422,
      "Ġab": 423,
      "ast": 424,
      "ĠU": 425,
      "ok": 426,
      "ak": 427,
      "Ġpl": 428,
      "pl": 429,
      "per": 430,
      "Ġwill": 431,
      "Ġj": 432,
      "ich": 433,
      "ide": 434,
      "ff": 435,
      "Ġall": 436,
      "ions": 437,
      "Ġk": 438,
      "Ġhas": 439,
      "te": 440,
      "ack": 441,
      "Ġyour": 442,
      "ber": 443,
      "ice": 444,
      "Ġne": 445,
      "ally": 446,
      "Ġwhe": 447,
      "ia": 448,
      "Ġdo": 449,
      "ated": 450,
      "age": 451,
      "ans": 452,
      "..": 453,
      "iz": 454,
      "ie": 455,
      "ong": 456,
      "Ġgo": 457,
      "ther": 458,
      "Ġen": 459,
      "ry": 460,
      "ip": 461,
      "Ġcl": 462,
      "ue": 463,
      "Ġad": 464,
      "Ġbut": 465,
      "ame": 466,
      "ind": 467,
      "are": 468,
      "Ġme": 469,
      "Ġ$": 470,
      "Ġhis": 471,
      "ub": 472,
      "ĠK": 473,
      "ass": 474,
      "Ġcomp": 475,
      "ĠIn": 476,
      "gh": 477,
      "able": 478,
      "ous": 479,
      "cc": 480,
      "act": 481,
      "ary": 482,
      "ap": 483,
      "cl": 484,
      "orm": 485,
      "Ġun": 486,
      "Ġtheir": 487,
      "ult": 488,
      "Ġout": 489,
      "ime": 490,
      "Ġim": 491,
      "ook": 492,
      "ĠÐ": 493,
      "ĠSt": 494,
      "'t": 495,
      "one": 496,
      "Ġthey": 497,
      "Ġup": 498,
      "du": 499,
      "Ġcont": 500,
      "ance": 501,
      "ep": 502,
      "Ġmore": 503,
      "av": 504,
      "Ġres": 505,
      "Ġwhich": 506,
      "ib": 507,
      "ĠTh": 508,
      "ake": 509,
      "Ġone": 510,
      "ite": 511,
      "ations": 512,
      "ĠV": 513,
      "Ġso": 514,
      "very": 515,
      "ire": 516,
      "ign": 517,
      "ical": 518,
      "Ġint": 519,
      "so": 520,
      "Ġwho": 521,
      "ru": 522,
      "ction": 523,
      "ase": 524,
      "ace": 525,
      "ord": 526,
      "Ġman": 527,
      "ach": 528,
      "ence": 529,
      "Ġabout": 530,
      "ks": 531,
      "Ġapp": 532,
      "ĠâĢ": 533,
      "ail": 534,
      "Ġsp": 535,
      "ĠCh": 536,
      "Ġ\\": 537,
      "ile": 538,
      "ents": 539,
      "Ġsa": 540,
      "Ġqu": 541,
      "Ġper": 542,
      "ĠY": 543,
      "Ġli": 544,
      "Ð¾": 545,
      "ount": 546,
      "ond": 547,
      "ĊĠĠĠĠ": 548,
      "Ġar": 549,
      "vel": 550,
      "Ġte": 551,
      "Ġmy": 552,
      "Ġdis": 553,
      "Ġour": 554,
      "ition": 555,
      "erv": 556,
      "Ġwere": 557,
      "form": 558,
      "ress": 559,
      "Ġhad": 560,
      "ll": 561,
      "Ġother": 562,
      "Ġyear": 563,
      "Ġ=": 564,
      "Ġnew": 565,
      "reat": 566,
      "Ġ-": 567,
      "port": 568,
      "Ġev": 569,
      "int": 570,
      "Ġoff": 571,
      "ens": 572,
      "Ġpart": 573,
      "ose": 574,
      "Ġher": 575,
      "Ð°": 576,
      "ĊĠĠĠ": 577,
      "ere": 578,
      "ely": 579,
      "Ġalso": 580,
      "ays": 581,
      "own": 582,
      "Ġag": 583,
      "ory": 584,
      "lic": 585,
      "Ġbeen": 586,
      "ĊĠĠĠĠĠĠĠĠ": 587,
      "ang": 588,
      "Ġwork": 589,
      "ob": 590,
      "ree": 591,
      "ors": 592,
      "ild": 593,
      "ark": 594,
      "ov": 595,
      "Ġif": 596,
      "ings": 597,
      "ĠIt": 598,
      "Ġtime": 599,
      "vers": 600,
      "ove": 601,
      "mer": 602,
      "ound": 603,
      "ath": 604,
      "Ġits": 605,
      "ph": 606,
      "Ġthere": 607,
      "Ġsc": 608,
      "ck": 609,
      "Ġany": 610,
      "ish": 611,
      "Ġwould": 612,
      ").": 613,
      "ian": 614,
      "Ġover": 615,
      "ne": 616,
      "Ġpe": 617,
      "Ġrec": 618,
      "Ġtra": 619,
      "Ġthem": 620,
      "Ġ'": 621,
      "Ġkn": 622,
      "Ġro": 623,
      "xt": 624,
      "ric": 625,
      "Ġsome": 626,
      "irst": 627,
      "Ġget": 628,
      "Ðµ": 629,
      ".\"": 630,
      "Ġwhen": 631,
      "Ġpre": 632,
      "urn": 633,
      "use": 634,
      "Ġthan": 635,
      "Ġlike": 636,
      "Ð¸": 637,
      "Ġtr": 638,
      "ces": 639,
      "old": 640,
      "Ġwhat": 641,
      "Ġbec": 642,
      "nder": 643,
      "Ġinto": 644,
      "ood": 645,
      "oll": 646,
      "fter": 647,
      "oy": 648,
      "wn": 649,
      ");": 650,
      "ople": 651,
      "rit": 652,
      "ĠHe": 653,
      "Ġacc": 654,
      "ink": 655,
      "ates": 656,
      "Ġtw": 657,
      "),": 658,
      "Ġdes": 659,
      "ons": 660,
      "ft": 661,
      "ick": 662,
      "Ġam": 663,
      "ject": 664,
      "ec": 665,
      "clud": 666,
      "ram": 667,
      "Ġno": 668,
      "Ġshe": 669,
      "tern": 670,
      "ont": 671,
      "Ġcomm": 672,
      "Ġsaid": 673,
      "ater": 674,
      "hed": 675,
      "Ġjust": 676,
      "ual": 677,
      "//": 678,
      "igh": 679,
      "Ġfe": 680,
      "iew": 681,
      "ious": 682,
      "--": 683,
      "ĠâĢĵ": 684,
      "Ġfirst": 685,
      "Ġhow": 686,
      "ĊĠĠĠĠĠĠĠ": 687,
      "iff": 688,
      "Ġpeople": 689,
      "we": 690,
      "lect": 691,
      "ool": 692,
      "Ð½": 693,
      "Ġ&": 694,
      "Ġind": 695,
      "ef": 696,
      "ng": 697,
      "iss": 698,
      "Ġra": 699,
      "com": 700,
      "Ġneed": 701,
      "pec": 702,
      "ational": 703,
      "amp": 704,
      "Ġact": 705,
      "ĠWe": 706,
      "aw": 707,
      "ss": 708,
      "ÑĢ": 709,
      "ĠUn": 710,
      "ning": 711,
      "rough": 712,
      "get": 713,
      "Ġbet": 714,
      "Ġ{": 715,
      "eth": 716,
      "Ġonly": 717,
      "In": 718,
      "Ġprov": 719,
      "Ġunder": 720,
      "ert": 721,
      "Ġbl": 722,
      "ities": 723,
      "ÑĤ": 724,
      "eg": 725,
      ",\"": 726,
      "ause": 727,
      "ific": 728,
      "round": 729,
      "Ġtwo": 730,
      "Ġinclud": 731,
      "elf": 732,
      "Ġcons": 733,
      "Ġadd": 734,
      "Ġem": 735,
      "Ġmay": 736,
      "erm": 737,
      "ced": 738,
      "li": 739,
      "Ġmost": 740,
      "ise": 741,
      "ade": 742,
      "pect": 743,
      "les": 744,
      "ĠThis": 745,
      "olog": 746,
      "ĉĉ": 747,
      "ty": 748,
      "row": 749,
      "yst": 750,
      "ps": 751,
      "ough": 752,
      "ating": 753,
      "Ġthrough": 754,
      "Ñģ": 755,
      "Ġknow": 756,
      "rib": 757,
      "Ġreg": 758,
      "hen": 759,
      "ock": 760,
      "Ġback": 761,
      "Ġfl": 762,
      "Ġafter": 763,
      "ting": 764,
      "Ġco": 765,
      "Ġinv": 766,
      "Ġatt": 767,
      "=\"": 768,
      "ring": 769,
      "oint": 770,
      "ug": 771,
      "ĠCom": 772,
      "ident": 773,
      "ata": 774,
      "ublic": 775,
      "Th": 776,
      "Ġimp": 777,
      "Ġcould": 778,
      "oth": 779,
      "Ġthese": 780,
      "Ġdiff": 781,
      "pport": 782,
      "Ġstud": 783,
      "Ġass": 784,
      "Ð¾Ð": 785,
      "Ġyears": 786,
      "ener": 787,
      "ife": 788,
      "Ġwell": 789,
      "ics": 790,
      "ys": 791,
      "Ġsee": 792,
      "als": 793,
      "Ġwhere": 794,
      "Ġhim": 795,
      "Ġrel": 796,
      "ward": 797,
      "ments": 798,
      "Ġ<": 799,
      "Ġbu": 800,
      "ful": 801,
      "Ã©": 802,
      "Ġph": 803,
      "Ġmake": 804,
      "Ġhel": 805,
      "ased": 806,
      "Ġevery": 807,
      "Ġserv": 808,
      "Ġlook": 809,
      "Ġprodu": 810,
      "ily": 811,
      "ĊĠ": 812,
      "Ġinc": 813,
      "Ġpr": 814,
      "day": 815,
      "ange": 816,
      "io": 817,
      "oss": 818,
      "cess": 819,
      "ict": 820,
      "ular": 821,
      "any": 822,
      "uch": 823,
      "ystem": 824,
      "ork": 825,
      "Ġret": 826,
      "Ġrem": 827,
      "Ġwant": 828,
      "Ġset": 829,
      "arch": 830,
      "Ġcol": 831,
      "cy": 832,
      "ility": 833,
      "ren": 834,
      "ited": 835,
      "Ġsec": 836,
      "fore": 837,
      "Ġthen": 838,
      "ible": 839,
      "Ġplay": 840,
      "Ġuse": 841,
      "bs": 842,
      "und": 843,
      "uring": 844,
      "ative": 845,
      "Ġent": 846,
      "hip": 847,
      "ied": 848,
      "Ġfin": 849,
      "ract": 850,
      "Ġsuch": 851,
      "ull": 852,
      "Ġmany": 853,
      "ures": 854,
      "ĠNew": 855,
      "erson": 856,
      "Ġvery": 857,
      "ex": 858,
      "ĠPro": 859,
      "Ġnow": 860,
      "ower": 861,
      "Ġac": 862,
      "Ġpol": 863,
      "Ġway": 864,
      "ble": 865,
      "velop": 866,
      "itt": 867,
      "_{": 868,
      "Ġshould": 869,
      "Ġeven": 870,
      "aking": 871,
      "Ġpres": 872,
      "riv": 873,
      "ax": 874,
      "alth": 875,
      "Ġdid": 876,
      "ĠWh": 877,
      "up": 878,
      "iness": 879,
      "ient": 880,
      "Ġhelp": 881,
      "its": 882,
      "ices": 883,
      "ĠRe": 884,
      "ivers": 885,
      "Ġke": 886,
      "ts": 887,
      "iel": 888,
      "Ġmod": 889,
      "ience": 890,
      "Ġinst": 891,
      "**": 892,
      "Ġright": 893,
      "Ġexper": 894,
      "ues": 895,
      "Ġdec": 896,
      "air": 897,
      "Ġsm": 898,
      "land": 899,
      "ĠAr": 900,
      "Ġdef": 901,
      "Ġeff": 902,
      "hes": 903,
      "gan": 904,
      "ĠAnd": 905,
      "other": 906,
      "ement": 907,
      "Ġagain": 908,
      "Ġbecause": 909,
      "Ġown": 910,
      "Ġend": 911,
      "anc": 912,
      "Ġtrans": 913,
      "Ġshow": 914,
      "ix": 915,
      "ner": 916,
      "ĠYou": 917,
      "ution": 918,
      "cept": 919,
      "ars": 920,
      "chool": 921,
      "Ġspec": 922,
      "ash": 923,
      "Ġgood": 924,
      "az": 925,
      "ĠDe": 926,
      "ins": 927,
      "pr": 928,
      "Ġloc": 929,
      "con": 930,
      "ah": 931,
      "Ġsub": 932,
      "Ġlong": 933,
      "Ġ}": 934,
      "ank": 935,
      "Ġstart": 936,
      "ale": 937,
      "Ġclass": 938,
      "Ġdiffere": 939,
      "Ġhigh": 940,
      "ollow": 941,
      "Ġbeing": 942,
      "...": 943,
      "ĠAl": 944,
      "Ġworld": 945,
      "irect": 946,
      "oun": 947,
      "Ġinter": 948,
      "Ġgu": 949,
      "usiness": 950,
      "Ġsur": 951,
      "Ġmuch": 952,
      "ven": 953,
      "let": 954,
      "Ġnum": 955,
      "Ġcall": 956,
      "St": 957,
      "formation": 958,
      "Ġgreat": 959,
      "ince": 960,
      "Ġrequ": 961,
      "Ġ*": 962,
      "Ġdown": 963,
      "Ġdon": 964,
      "Ġins": 965,
      "Ġmade": 966,
      "ween": 967,
      "Ġmon": 968,
      "Ġfam": 969,
      "Ġthose": 970,
      "'re": 971,
      "ason": 972,
      "the": 973,
      "Ġcount": 974,
      "Ġthink": 975,
      "view": 976,
      "ize": 977,
      "Ġbefore": 978,
      "Ġdoes": 979,
      "ek": 980,
      "Ġ[": 981,
      "Ġmem": 982,
      "Ġbel": 983,
      "ĠAn": 984,
      "ten": 985,
      "man": 986,
      "Ġform": 987,
      "ode": 988,
      "Ġart": 989,
      "meric": 990,
      "ines": 991,
      "de": 992,
      "der": 993,
      "Ġread": 994,
      "arg": 995,
      "led": 996,
      "Ġval": 997,
      "ĠSe": 998,
      "ĠSh": 999,
      "Ġfind": 1000,
      "Ġmin": 1001,
      "ives": 1002,
      "pen": 1003,
      "ĊĊ": 1004,
      "</": 1005,
      "rest": 1006,
      "Ġdevelop": 1007,
      "Ġsim": 1008,
      "au": 1009,
      "gram": 1010,
      "Ð»": 1011,
      "Ġsystem": 1012,
      "ather": 1013,
      "ave": 1014,
      "Ġhere": 1015,
      "oh": 1016,
      "atch": 1017,
      "Ġbetween": 1018,
      "ism": 1019,
      "imes": 1020,
      "Ġmed": 1021,
      "Ġdet": 1022,
      "Ġdisc": 1023,
      "Ġused": 1024,
      "uth": 1025,
      "Ġref": 1026,
      "way": 1027,
      "ĊĠĠĠĠĠĠĠĠĠĠĠ": 1028,
      "read": 1029,
      "chn": 1030,
      "line": 1031,
      "iet": 1032,
      "Ġfun": 1033,
      "Ġlead": 1034,
      "ield": 1035,
      "Ġcur": 1036,
      "vern": 1037,
      "Ġext": 1038,
      "ouse": 1039,
      "ĠAs": 1040,
      "Ġexp": 1041,
      "arm": 1042,
      "alk": 1043,
      "Ġob": 1044,
      "Ġinte": 1045,
      "Ġtake": 1046,
      "Ġperson": 1047,
      "Ġser": 1048,
      "Ġfollow": 1049,
      "Ġsom": 1050,
      "Ġgra": 1051,
      "ern": 1052,
      "Ġear": 1053,
      "Ġed": 1054,
      "tt": 1055,
      "Ġcre": 1056,
      "uss": 1057,
      "Ġcar": 1058,
      "Ġpublic": 1059,
      "els": 1060,
      "Ġday": 1061,
      "We": 1062,
      "Ġlast": 1063,
      "Ġsign": 1064,
      "ages": 1065,
      "ets": 1066,
      "Ġlife": 1067,
      "Ġav": 1068,
      "ĠFor": 1069,
      "ists": 1070,
      "Ġ.": 1071,
      "uc": 1072,
      "Ġwhile": 1073,
      "Ġeach": 1074,
      "ton": 1075,
      "Ġsupport": 1076,
      "ever": 1077,
      "Ġbest": 1078,
      "rent": 1079,
      "Ġconf": 1080,
      "ĠBut": 1081,
      "ually": 1082,
      "Ġrep": 1083,
      "ology": 1084,
      "Ġhand": 1085,
      "Ġla": 1086,
      "Ġcommun": 1087,
      "ĠAmeric": 1088,
      "âĢĶ": 1089,
      "Ġche": 1090,
      "Ġfil": 1091,
      "ute": 1092,
      "ness": 1093,
      "ital": 1094,
      "Ġvis": 1095,
      "Ġfound": 1096,
      "Ġvar": 1097,
      "ght": 1098,
      "Ġcor": 1099,
      "roup": 1100,
      "Ġel": 1101,
      "vent": 1102,
      "Ġsame": 1103,
      "Ġgener": 1104,
      "ters": 1105,
      "Ġbusiness": 1106,
      "ox": 1107,
      "Ġboth": 1108,
      "Ġ|": 1109,
      "ĠLe": 1110,
      "ier": 1111,
      "Ġpoint": 1112,
      "ized": 1113,
      "Ġdifferent": 1114,
      "Ġgl": 1115,
      "ames": 1116,
      "ĠSc": 1117,
      "{\\": 1118,
      "ection": 1119,
      ".,": 1120,
      "ann": 1121,
      "It": 1122,
      "Ðº": 1123,
      "Ġstr": 1124,
      "Ġinformation": 1125,
      "ĠIf": 1126,
      "ined": 1127,
      "ER": 1128,
      "Ġreturn": 1129,
      "Ġchild": 1130,
      "Ġcour": 1131,
      "Ġstill": 1132,
      "iversity": 1133,
      "Ġmark": 1134,
      "Ġreal": 1135,
      "akes": 1136,
      "Wh": 1137,
      "Ġresult": 1138,
      "ional": 1139,
      "ĠCl": 1140,
      "Ġaround": 1141,
      "nce": 1142,
      "Ġdata": 1143,
      "Ġprovid": 1144,
      "to": 1145,
      "Ġinf": 1146,
      "Ġcare": 1147,
      "ruct": 1148,
      "Ġbook": 1149,
      "Ġdel": 1150,
      "Ġi": 1151,
      "Ġhome": 1152,
      "ĠAd": 1153,
      "ross": 1154,
      "ret": 1155,
      "Ġdist": 1156,
      "Ġcent": 1157,
      "ature": 1158,
      "ered": 1159,
      "ple": 1160,
      "ants": 1161,
      "ral": 1162,
      "This": 1163,
      "orn": 1164,
      "gy": 1165,
      "Ñĥ": 1166,
      "sc": 1167,
      "Ġthree": 1168,
      "ww": 1169,
      "ĠInd": 1170,
      "Ġty": 1171,
      "'ve": 1172,
      "Ġteam": 1173,
      "ved": 1174,
      "oad": 1175,
      "aj": 1176,
      "Ġsay": 1177,
      "Ġ$\\": 1178,
      "oot": 1179,
      "self": 1180,
      "'m": 1181,
      "Ġappro": 1182,
      "ien": 1183,
      "Ġimport": 1184,
      "Ġsol": 1185,
      "Ġdesign": 1186,
      "Ġsl": 1187,
      "ired": 1188,
      "Ġdep": 1189,
      "Ġpartic": 1190,
      "://": 1191,
      "ared": 1192,
      "ody": 1193,
      "Ġduring": 1194,
      "ished": 1195,
      "Ġreally": 1196,
      "Ġgoing": 1197,
      "Ġreport": 1198,
      "Ġfact": 1199,
      "Ġprogram": 1200,
      "ural": 1201,
      "ĠZ": 1202,
      "ĠIs": 1203,
      "Ġrun": 1204,
      "Ġplace": 1205,
      "Ġprocess": 1206,
      "ik": 1207,
      "bers": 1208,
      "Ġest": 1209,
      "ĠShe": 1210,
      "Ġcontin": 1211,
      "eng": 1212,
      "âĢ¦": 1213,
      "Ġchar": 1214,
      "Ġresp": 1215,
      "Ġconst": 1216,
      "app": 1217,
      "ision": 1218,
      "ms": 1219,
      "Ġusing": 1220,
      "ĠQ": 1221,
      "Ġpat": 1222,
      "atic": 1223,
      "rid": 1224,
      "ering": 1225,
      "ery": 1226,
      "cent": 1227,
      "math": 1228,
      "ĠBl": 1229,
      "Ġcle": 1230,
      "Ġnumber": 1231,
      "Ġpost": 1232,
      "ĠThey": 1233,
      "Ġsoc": 1234,
      "ption": 1235,
      "pro": 1236,
      "inal": 1237,
      "Ġiss": 1238,
      "ator": 1239,
      "ving": 1240,
      "of": 1241,
      "Ġincluding": 1242,
      "\">": 1243,
      "illion": 1244,
      "\",": 1245,
      "()": 1246,
      "Ġhealth": 1247,
      "ĠâĢĶ": 1248,
      "Ġlist": 1249,
      "ym": 1250,
      "par": 1251,
      "Ġdirect": 1252,
      "Ġwrit": 1253,
      "Ġpur": 1254,
      "riend": 1255,
      "IN": 1256,
      "ways": 1257,
      "Ġtechn": 1258,
      "gg": 1259,
      "Ġopen": 1260,
      "att": 1261,
      "Ġadv": 1262,
      "Ġprof": 1263,
      "Ġ/": 1264,
      "Ġschool": 1265,
      "ĠPh": 1266,
      "Ġposs": 1267,
      "ina": 1268,
      "arn": 1269,
      "ĠCon": 1270,
      "Ġsk": 1271,
      "Ġhapp": 1272,
      "ĠPl": 1273,
      "ĠĠĠĠĠĠĠ": 1274,
      "ially": 1275,
      "rist": 1276,
      "ron": 1277,
      "Ġpass": 1278,
      "Ġtoo": 1279,
      "Ġtop": 1280,
      "be": 1281,
      "ĠEx": 1282,
      "Ġexpl": 1283,
      "ittle": 1284,
      "ĠHow": 1285,
      "Ġmain": 1286,
      "Ġsecond": 1287,
      "Ġproduct": 1288,
      "ining": 1289,
      "que": 1290,
      "Ġinterest": 1291,
      "Ġpar": 1292,
      "less": 1293,
      "Ġbuild": 1294,
      "vernment": 1295,
      "iving": 1296,
      "Ġmus": 1297,
      "Ġfew": 1298,
      "lease": 1299,
      "ĠSp": 1300,
      "ĠTr": 1301,
      "ploy": 1302,
      "ality": 1303,
      "Ġproject": 1304,
      "Ġorgan": 1305,
      "âĢĵ": 1306,
      "Ġeffect": 1307,
      "ration": 1308,
      "ĊĠĠĠĠĠĠĠĠĠĠĠĠĠĠĠĠ": 1309,
      "ĠComm": 1310,
      "ray": 1311,
      "ense": 1312,
      "Ċĉĉ": 1313,
      "Ġstate": 1314,
      "Ġrest": 1315,
      "Ð²": 1316,
      "Ġmust": 1317,
      "ought": 1318,
      "Ġmonth": 1319,
      "rol": 1320,
      "Ġperform": 1321,
      "----": 1322,
      "ases": 1323,
      "Ġca": 1324,
      "Ġsince": 1325,
      "mber": 1326,
      "ĠThere": 1327,
      "ember": 1328,
      "ref": 1329,
      "Ġincre": 1330,
      "ccess": 1331,
      "Ġcase": 1332,
      "over": 1333,
      "stand": 1334,
      "ote": 1335,
      "Ġname": 1336,
      "Ġagainst": 1337,
      "reen": 1338,
      "Ġlot": 1339,
      "son": 1340,
      "ething": 1341,
      "Ġinvest": 1342,
      "ris": 1343,
      "min": 1344,
      "ves": 1345,
      "Ġsmall": 1346,
      "raph": 1347,
      "oard": 1348,
      "thing": 1349,
      "omen": 1350,
      "Ġpos": 1351,
      "lement": 1352,
      "sp": 1353,
      "Ġstand": 1354,
      "Ġmov": 1355,
      "Ġlaw": 1356,
      "ustom": 1357,
      "ma": 1358,
      "ission": 1359,
      "Ġoper": 1360,
      "Ġallow": 1361,
      "Ġprot": 1362,
      "Ġhead": 1363,
      "Ġcompany": 1364,
      "Ġanother": 1365,
      "text": 1366,
      "Ġcome": 1367,
      "right": 1368,
      "yn": 1369,
      "Ġtest": 1370,
      "ON": 1371,
      "uro": 1372,
      "pos": 1373,
      "Ġtri": 1374,
      "ĠCol": 1375,
      "Ġquest": 1376,
      "ĠUniversity": 1377,
      "Ġeas": 1378,
      "ailable": 1379,
      "ĠBe": 1380,
      "ran": 1381,
      "Ġfamily": 1382,
      "Ġwithout": 1383,
      "Ġrece": 1384,
      "Ġet": 1385,
      "Ġhist": 1386,
      "ertain": 1387,
      "Ġplan": 1388,
      "Ġweek": 1389,
      "'ll": 1390,
      "ĠRes": 1391,
      "Ġthings": 1392,
      "Ġz": 1393,
      "outh": 1394,
      "ior": 1395,
      "ately": 1396,
      "Ġpower": 1397,
      "Ġequ": 1398,
      "here": 1399,
      "ĠTe": 1400,
      "Ġdem": 1401,
      "Ġide": 1402,
      "ott": 1403,
      "Ġrese": 1404,
      "ohn": 1405,
      "Ġhum": 1406,
      "Ġbro": 1407,
      "Ġleg": 1408,
      "....": 1409,
      "ling": 1410,
      "orth": 1411,
      "ization": 1412,
      "Ġput": 1413,
      "Ġfeel": 1414,
      "Ċĉ": 1415,
      "Ġtry": 1416,
      "ĠAll": 1417,
      "ically": 1418,
      "Ġnext": 1419,
      "Ġann": 1420,
      "Ġproble": 1421,
      "ird": 1422,
      "Ġsomething": 1423,
      "ump": 1424,
      "Ġcurrent": 1425,
      "med": 1426,
      "ĠUS": 1427,
      "Ġdi": 1428,
      "Ġlet": 1429,
      "by": 1430,
      "Ġgame": 1431,
      "ains": 1432,
      "Ġlittle": 1433,
      "err": 1434,
      "lection": 1435,
      "ury": 1436,
      "ley": 1437,
      "Ġpop": 1438,
      "ead": 1439,
      "Ġnever": 1440,
      "sh": 1441,
      "==": 1442,
      "dition": 1443,
      "ES": 1444,
      "uthor": 1445,
      "Ġmet": 1446,
      "Ġmight": 1447,
      "Ġlevel": 1448,
      "eb": 1449,
      "Ġalways": 1450,
      "ample": 1451,
      "ified": 1452,
      "oci": 1453,
      "Ġbig": 1454,
      "put": 1455,
      "Ġsit": 1456,
      "ream": 1457,
      "ium": 1458,
      "ĠÂ": 1459,
      "Ġbetter": 1460,
      "Ġimportant": 1461,
      "Ġkeep": 1462,
      "ĠMar": 1463,
      "ider": 1464,
      "isc": 1465,
      "rem": 1466,
      "Ġmat": 1467,
      "Ġold": 1468,
      "Ġspe": 1469,
      "por": 1470,
      "Ġturn": 1471,
      "Ġ:": 1472,
      "Ġstat": 1473,
      "Ġpresent": 1474,
      "iven": 1475,
      "AT": 1476,
      "ised": 1477,
      "ivid": 1478,
      "ĊĠĠĠĠĠ": 1479,
      "AR": 1480,
      "Ġlove": 1481,
      "Ġ+": 1482,
      "__": 1483,
      "Ġmanag": 1484,
      "Ġfree": 1485,
      "Ġavailable": 1486,
      "ource": 1487,
      "Ġwater": 1488,
      "rand": 1489,
      "ĠSo": 1490,
      "Ġmarket": 1491,
      "une": 1492,
      "Ġterm": 1493,
      "ĠCent": 1494,
      "Ġseem": 1495,
      "Ġwithin": 1496,
      "lish": 1497,
      "Ġorder": 1498,
      "}}": 1499,
      "^{": 1500,
      "iron": 1501,
      "itions": 1502,
      "Ch": 1503,
      "ĠOr": 1504,
      "ee": 1505,
      "ĠMay": 1506,
      "Ġcap": 1507,
      "Ġes": 1508,
      "ently": 1509,
      "Ġgot": 1510,
      "til": 1511,
      "ats": 1512,
      "inc": 1513,
      "Ġrecord": 1514,
      "ively": 1515,
      "Ġgrow": 1516,
      "Ġpay": 1517,
      "Ġbelie": 1518,
      "Ġsays": 1519,
      "arge": 1520,
      "ternational": 1521,
      "conom": 1522,
      "vious": 1523,
      "arent": 1524,
      "ĠOn": 1525,
      "Ġexperience": 1526,
      "ency": 1527,
      "Ġfour": 1528,
      "Ġbeh": 1529,
      "ients": 1530,
      "ethod": 1531,
      "Ġask": 1532,
      "ories": 1533,
      "Ġfac": 1534,
      "Ġproper": 1535,
      "Ġfriend": 1536,
      "ries": 1537,
      "ived": 1538,
      "Ġview": 1539,
      "Ñı": 1540,
      "Ġless": 1541,
      "ĠEng": 1542,
      "enn": 1543,
      "Ġhard": 1544,
      "ĠJan": 1545,
      "Ġeng": 1546,
      "Ġbre": 1547,
      "oid": 1548,
      "ument": 1549,
      "Ġservice": 1550,
      "oor": 1551,
      "icle": 1552,
      "ify": 1553,
      "ured": 1554,
      "Ġsing": 1555,
      "Ġcost": 1556,
      "Ġlocal": 1557,
      "ĠGo": 1558,
      "rac": 1559,
      "omm": 1560,
      "ability": 1561,
      "Ġfull": 1562,
      "ention": 1563,
      "Ġaff": 1564,
      "Ġsupp": 1565,
      "Ġgroup": 1566,
      "ĠTo": 1567,
      "ung": 1568,
      "Ġelect": 1569,
      "lex": 1570,
      "oney": 1571,
      "ware": 1572,
      "Ġprom": 1573,
      "Ġchange": 1574,
      "ination": 1575,
      "ober": 1576,
      "ably": 1577,
      "Ð¼": 1578,
      "ours": 1579,
      "Ġcustom": 1580,
      "ained": 1581,
      "Ġaccess": 1582,
      "work": 1583,
      "val": 1584,
      "Ð´": 1585,
      "Ġchang": 1586,
      "iety": 1587,
      "Ġable": 1588,
      "aim": 1589,
      "Ġwin": 1590,
      "ope": 1591,
      "ĠMan": 1592,
      "',": 1593,
      "Ġcho": 1594,
      "Ġnon": 1595,
      "ush": 1596,
      "Ġexpect": 1597,
      "Ġbas": 1598,
      "aut": 1599,
      "ney": 1600,
      "for": 1601,
      "ential": 1602,
      "Ġworking": 1603,
      "Ġdays": 1604,
      "Ġgovernment": 1605,
      "aster": 1606,
      "ĠThat": 1607,
      "OR": 1608,
      "As": 1609,
      "Ġchildren": 1610,
      "ged": 1611,
      "Ġmeet": 1612,
      "urs": 1613,
      "Ġcountry": 1614,
      "ĠJohn": 1615,
      "ĠNo": 1616,
      "Ñĸ": 1617,
      "Ġprovide": 1618,
      "Ġ_": 1619,
      "}$": 1620,
      "equ": 1621,
      "Ġaddition": 1622,
      "elt": 1623,
      "}\\": 1624,
      "Ġleft": 1625,
      "ĠCo": 1626,
      "ajor": 1627,
      "Ġvalue": 1628,
      "ĠAmerican": 1629,
      "Ġoffic": 1630,
      "ister": 1631,
      "ĠChrist": 1632,
      "Ġconc": 1633,
      "Ġcr": 1634,
      "Ġfunction": 1635,
      "ĠCan": 1636,
      "AN": 1637,
      "Ġsuccess": 1638,
      "Ġpract": 1639,
      "Ġgive": 1640,
      "If": 1641,
      "Ġarea": 1642,
      "Ġben": 1643,
      "orld": 1644,
      "ĠAt": 1645,
      "Ġactiv": 1646,
      "ording": 1647,
      "irc": 1648,
      "Ġlight": 1649,
      "Ġsure": 1650,
      "Ġstudents": 1651,
      "Ġuntil": 1652,
      "Ġword": 1653,
      "ĠAm": 1654,
      "resent": 1655,
      "Ġevent": 1656,
      "Ġstory": 1657,
      "ĠUnited": 1658,
      "iting": 1659,
      "Ġcommunity": 1660,
      "iver": 1661,
      "Ġline": 1662,
      "ocus": 1663,
      "ĠCar": 1664,
      "Ġpast": 1665,
      "Ġindust": 1666,
      "osp": 1667,
      "ĠMed": 1668,
      "rop": 1669,
      "Ġaway": 1670,
      "Ġemploy": 1671,
      "Ġ#": 1672,
      "Ġservices": 1673,
      "Ġresearch": 1674,
      "Ġmusic": 1675,
      "Ġapplic": 1676,
      "eter": 1677,
      "Ġunderstand": 1678,
      "gin": 1679,
      "Ġexc": 1680,
      "Ġcharact": 1681,
      "Ġconn": 1682,
      "duct": 1683,
      "Ġdra": 1684,
      "ĠFr": 1685,
      "Ġmaking": 1686,
      "viron": 1687,
      "ĊĠĠĠĠĠĠĠĠĠĠĠĠĠĠĠ": 1688,
      "uture": 1689,
      "Ġland": 1690,
      "org": 1691,
      "ending": 1692,
      "ots": 1693,
      "Ġnear": 1694,
      "amb": 1695,
      "Ġalong": 1696,
      "set": 1697,
      "uck": 1698,
      "ulation": 1699,
      "ateg": 1700,
      "Ġpriv": 1701,
      "Ġmillion": 1702,
      "ards": 1703,
      "ales": 1704,
      "ĠX": 1705,
      "Ġocc": 1706,
      "side": 1707,
      "ai": 1708,
      "Ġmove": 1709,
      "ended": 1710,
      "ising": 1711,
      "Ġspecial": 1712,
      "Ġfund": 1713,
      "->": 1714,
      "Ġopt": 1715,
      "Ġtoday": 1716,
      "erence": 1717,
      "Ġdesc": 1718,
      "Ġthought": 1719,
      "ows": 1720,
      "You": 1721,
      "ID": 1722,
      "Ġdev": 1723,
      "Ġ,": 1724,
      "EN": 1725,
      "Ġcalled": 1726,
      "Ġorig": 1727,
      "Ġjob": 1728,
      "Ġ//": 1729,
      "Ġve": 1730,
      "ready": 1731,
      "Ġpolit": 1732,
      "lished": 1733,
      "Ġwhy": 1734,
      "osed": 1735,
      "idd": 1736,
      "Ġaut": 1737,
      "itive": 1738,
      "Ġmar": 1739,
      "Ġpa": 1740,
      "ST": 1741,
      "An": 1742,
      "Ġsocial": 1743,
      "Ġbased": 1744,
      "ĠFl": 1745,
      "Ġfore": 1746,
      "ĠEuro": 1747,
      "Ġfollowing": 1748,
      "ians": 1749,
      "pped": 1750,
      "Ġmult": 1751,
      "ograph": 1752,
      "urity": 1753,
      "ĠWith": 1754,
      "ole": 1755,
      "ourn": 1756,
      "alf": 1757,
      "af": 1758,
      "Pro": 1759,
      "AL": 1760,
      "veral": 1761,
      "Ġanal": 1762,
      "Ġ@": 1763,
      "Ġmil": 1764,
      "Ġcourse": 1765,
      "ĠRep": 1766,
      "Ġmean": 1767,
      "yl": 1768,
      "Ġimpro": 1769,
      "aff": 1770,
      "Ġlarge": 1771,
      "Ġgr": 1772,
      "itor": 1773,
      "Ġself": 1774,
      "ĠSu": 1775,
      "Ġkind": 1776,
      "rict": 1777,
      "utes": 1778,
      "ene": 1779,
      "ividual": 1780,
      "Ġbecome": 1781,
      "Ġmembers": 1782,
      "icy": 1783,
      "Ġacross": 1784,
      "ique": 1785,
      "Ġsw": 1786,
      "Ġident": 1787,
      "Ġcreat": 1788,
      "Ġtoget": 1789,
      "Ġtogether": 1790,
      "ger": 1791,
      "Ġpot": 1792,
      "ane": 1793,
      "::": 1794,
      "\".": 1795,
      "Ġoften": 1796,
      "Ġlim": 1797,
      "Ġfar": 1798,
      "Ġfield": 1799,
      "Ġphot": 1800,
      "wards": 1801,
      "Ġtimes": 1802,
      "'d": 1803,
      "Ġmajor": 1804,
      "urther": 1805,
      "What": 1806,
      "Ġtem": 1807,
      "ĠAss": 1808,
      "ĊĊĠĠĠ": 1809,
      "Ġstudy": 1810,
      "rad": 1811,
      "Ã¡": 1812,
      "Ġpossible": 1813,
      "yle": 1814,
      "abel": 1815,
      "ike": 1816,
      "Ġprofess": 1817,
      "Ġwomen": 1818,
      "Ġhuman": 1819,
      "ĠÐ¿": 1820,
      "He": 1821,
      "Ġalready": 1822,
      "Ġsaf": 1823,
      "Ġgiven": 1824,
      "htt": 1825,
      "Ġhaving": 1826,
      "Ex": 1827,
      "For": 1828,
      "vironment": 1829,
      "Ġthing": 1830,
      "not": 1831,
      "Ġdidn": 1832,
      "Ġcamp": 1833,
      "Ġshort": 1834,
      "ffic": 1835,
      "Ġfood": 1836,
      "Ġcity": 1837,
      "Ġwar": 1838,
      "Ġseason": 1839,
      "Ġexample": 1840,
      "obal": 1841,
      "ĠWhat": 1842,
      "ĠEn": 1843,
      "ights": 1844,
      "ĠPol": 1845,
      "ÑģÑĤ": 1846,
      "Ġlik": 1847,
      "Ġyoung": 1848,
      "Ġmen": 1849,
      "ances": 1850,
      "ither": 1851,
      "Ġinclude": 1852,
      "Ġnet": 1853,
      "(\\": 1854,
      "aps": 1855,
      "ills": 1856,
      "Ġvers": 1857,
      "Ġcontrol": 1858,
      "ript": 1859,
      "artment": 1860,
      "Ġseveral": 1861,
      "Ġfeat": 1862,
      "ored": 1863,
      "roll": 1864,
      "Ġclear": 1865,
      "Ġroom": 1866,
      "Ġparticular": 1867,
      "Ġdevelopment": 1868,
      "Ġfilm": 1869,
      "ĠApp": 1870,
      "Ġfocus": 1871,
      "Ġair": 1872,
      "Ġfr": 1873,
      "Ġhtt": 1874,
      "aterial": 1875,
      "ĠWhen": 1876,
      "Ġeconom": 1877,
      "Ġtell": 1878,
      "ift": 1879,
      "Ġleast": 1880,
      "Ġcame": 1881,
      "che": 1882,
      "Ġauthor": 1883,
      "Ġeduc": 1884,
      "iod": 1885,
      "Ã³": 1886,
      "ĠYork": 1887,
      "vert": 1888,
      "eral": 1889,
      "Ġmoney": 1890,
      "egin": 1891,
      "lev": 1892,
      "Ġcertain": 1893,
      "sel": 1894,
      "ideo": 1895,
      "Ġtreat": 1896,
      "leg": 1897,
      "me": 1898,
      "Ġside": 1899,
      "Ġindividual": 1900,
      "Ġhold": 1901,
      "ĠStates": 1902,
      "ask": 1903,
      "ched": 1904,
      "rap": 1905,
      "Ġever": 1906,
      "uary": 1907,
      "Ġwr": 1908,
      "orts": 1909,
      "ler": 1910,
      "ĠState": 1911,
      "Ġmeans": 1912,
      "Ġenough": 1913,
      "Ġonline": 1914,
      "idence": 1915,
      "joy": 1916,
      "utions": 1917,
      "Ġhouse": 1918,
      "Ġmethod": 1919,
      "Ġknown": 1920,
      "ails": 1921,
      "imate": 1922,
      "ĠEurope": 1923,
      "ĠPr": 1924,
      "Ġlearn": 1925,
      "Ġtype": 1926,
      "Ġinvol": 1927,
      "Ġfuture": 1928,
      "Ġdone": 1929,
      "ĠInst": 1930,
      "ources": 1931,
      "ape": 1932,
      "ĠGu": 1933,
      "Ġlo": 1934,
      "ued": 1935,
      "pportun": 1936,
      "Ġaccount": 1937,
      "dd": 1938,
      "AS": 1939,
      "ected": 1940,
      "co": 1941,
      "Ġothers": 1942,
      "Ġwebs": 1943,
      "ÃŃ": 1944,
      "ÑĮ": 1945,
      "Ġant": 1946,
      "(\"": 1947,
      "Ġthough": 1948,
      "Ġlooking": 1949,
      "Ġtalk": 1950,
      "ĠNational": 1951,
      "aring": 1952,
      "Ġlater": 1953,
      "back": 1954,
      "Ġcult": 1955,
      "ĠMin": 1956,
      "aken": 1957,
      "Ġhistory": 1958,
      "oman": 1959,
      "most": 1960,
      "Ġworks": 1961,
      "ĠCount": 1962,
      "ones": 1963,
      "Ġearly": 1964,
      "ilar": 1965,
      "ĠPres": 1966,
      "ides": 1967,
      "Con": 1968,
      "play": 1969,
      "Ġvol": 1970,
      "ĠWorld": 1971,
      "Ġsite": 1972,
      "Ġreview": 1973,
      "IT": 1974,
      "go": 1975,
      "Ġcreate": 1976,
      "ball": 1977,
      "uff": 1978,
      "Ġkey": 1979,
      "Ġtook": 1980,
      "Ġspace": 1981,
      "Ġfre": 1982,
      "ids": 1983,
      "ners": 1984,
      "ĠÃ": 1985,
      "rew": 1986,
      "Ġsum": 1987,
      "isk": 1988,
      "Ġlow": 1989,
      "Ġbenef": 1990,
      "Ġmom": 1991,
      "ĠSec": 1992,
      "Ġcomb": 1993,
      "Ġstrong": 1994,
      "Ġener": 1995,
      "Ġbody": 1996,
      "Ġdri": 1997,
      "begin": 1998,
      "sw": 1999,
      "Ġamong": 2000,
      "urch": 2001,
      "my": 2002,
      "Ġhig": 2003,
      "Ġseries": 2004,
      "aint": 2005,
      "ĠJu": 2006,
      "Ġopportun": 2007,
      "How": 2008,
      "ED": 2009,
      "ĠSte": 2010,
      "Ġmakes": 2011,
      "Ġpub": 2012,
      "Ġclaim": 2013,
      "pril": 2014,
      "ĠTra": 2015,
      "Ġdiscuss": 2016,
      "ster": 2017,
      "irl": 2018,
      "Ġtot": 2019,
      "Ġlive": 2020,
      "Ġnight": 2021,
      "Ġcou": 2022,
      "wh": 2023,
      "ĠOct": 2024,
      "Ġproblem": 2025,
      "ĠÐ²": 2026,
      "ĠIm": 2027,
      "Ġredu": 2028,
      "ony": 2029,
      "Ġonce": 2030,
      "cing": 2031,
      "bl": 2032,
      "Ġmeas": 2033,
      "Ġstre": 2034,
      "ĠCity": 2035,
      "();": 2036,
      "IC": 2037,
      "iam": 2038,
      "iol": 2039,
      "iter": 2040,
      "ĠGod": 2041,
      "ĠSchool": 2042,
      "ental": 2043,
      "Ġneeds": 2044,
      "reg": 2045,
      "Ġspecific": 2046,
      "abor": 2047,
      "There": 2048,
      "Ġdeal": 2049,
      "ada": 2050,
      "Ġdoing": 2051,
      "cer": 2052,
      "aces": 2053,
      "Ġinit": 2054,
      "ĠAb": 2055,
      "ogn": 2056,
      "pping": 2057,
      "Ġhappen": 2058,
      "ĠBro": 2059,
      "Ġbit": 2060,
      "ele": 2061,
      "Ġenjoy": 2062,
      "Ġreason": 2063,
      "fl": 2064,
      "ÑĢÐ°": 2065,
      "agn": 2066,
      "And": 2067,
      "ĠĠĠĠĠĠĠĠĠĠĠĠĠĠĠĠ": 2068,
      "Ñĭ": 2069,
      "ĠCal": 2070,
      "ĠHowever": 2071,
      "ĠMarch": 2072,
      "Ġmodel": 2073,
      "To": 2074,
      "book": 2075,
      "Ġresults": 2076,
      "lege": 2077,
      "Ġlarg": 2078,
      "Ġdoesn": 2079,
      "Ġappear": 2080,
      "Ġtrue": 2081,
      "Ġtre": 2082,
      "anies": 2083,
      "ĠMy": 2084,
      "Ġseen": 2085,
      "load": 2086,
      "ĠAust": 2087,
      "ĠAct": 2088,
      "cal": 2089,
      "By": 2090,
      "Ġx": 2091,
      "verage": 2092,
      "Ġenc": 2093,
      "Ġelse": 2094,
      "Ġfive": 2095,
      "Ġmaterial": 2096,
      "acy": 2097,
      "Al": 2098,
      "ĠEm": 2099,
      "Ġrelations": 2100,
      "ĠNe": 2101,
      "Ġmind": 2102,
      "Ġcrit": 2103,
      "Ġwent": 2104,
      "Ġdoc": 2105,
      "_{\\": 2106,
      "ze": 2107,
      "Ġquestion": 2108,
      "RE": 2109,
      "ĠAug": 2110,
      "Ġwon": 2111,
      "Ġpersonal": 2112,
      "):": 2113,
      "Ġcomplet": 2114,
      "Ġrequire": 2115,
      "Ġcompet": 2116,
      "Ġperiod": 2117,
      "ches": 2118,
      "ĠGe": 2119,
      "ators": 2120,
      "Ġsuper": 2121,
      "ĠPart": 2122,
      "uf": 2123,
      "Ġoffer": 2124,
      "Ġdue": 2125,
      "www": 2126,
      "Ġport": 2127,
      "ĠOne": 2128,
      ")$": 2129,
      "Ġcomes": 2130,
      "ilt": 2131,
      "Ġcheck": 2132,
      "ilities": 2133,
      "Ġbo": 2134,
      "Ġrepresent": 2135,
      "Ġtyp": 2136,
      "ancial": 2137,
      "Ġobject": 2138,
      "fect": 2139,
      "ĠAg": 2140,
      "ĠAf": 2141,
      "IS": 2142,
      "On": 2143,
      "Ġstep": 2144,
      "Ġtold": 2145,
      "Ġfinal": 2146,
      "Ġjo": 2147,
      "Ġvisit": 2148,
      "Ġchall": 2149,
      "part": 2150,
      "ĠSouth": 2151,
      "Ġey": 2152,
      "ĠComp": 2153,
      "But": 2154,
      "Ġwhether": 2155,
      "ino": 2156,
      "ĠMe": 2157,
      "Ġprob": 2158,
      "ume": 2159,
      "Ġstarted": 2160,
      "ĠCont": 2161,
      "arget": 2162,
      "ison": 2163,
      "fer": 2164,
      "Ġactually": 2165,
      "Ġabove": 2166,
      "ule": 2167,
      "Ġmonths": 2168,
      "error": 2169,
      "ĠThese": 2170,
      "Ñĩ": 2171,
      "Ġfav": 2172,
      "Ġbr": 2173,
      "ĠJanuary": 2174,
      "Ġdeb": 2175,
      "Ġyet": 2176,
      "Ġsignific": 2177,
      "Ġindustry": 2178,
      "?\"": 2179,
      "AC": 2180,
      "Ġsingle": 2181,
      "fort": 2182,
      "tain": 2183,
      "ibility": 2184,
      "angu": 2185,
      "illed": 2186,
      "olution": 2187,
      "oon": 2188,
      "ples": 2189,
      "Ġdr": 2190,
      "},": 2191,
      "Ġpress": 2192,
      "Ġtax": 2193,
      "}{": 2194,
      "Ġpri": 2195,
      "lete": 2196,
      "str": 2197,
      "na": 2198,
      "Ġbring": 2199,
      "now": 2200,
      "rodu": 2201,
      "rm": 2202,
      "ĠDep": 2203,
      "Ġenergy": 2204,
      "Ġnews": 2205,
      "Ġgetting": 2206,
      "Ġproducts": 2207,
      "Ġpercent": 2208,
      "Ð½Ð¸": 2209,
      "ĠApril": 2210,
      "ĠMc": 2211,
      "Ġsound": 2212,
      "ival": 2213,
      "Ġfurther": 2214,
      "hers": 2215,
      "fig": 2216,
      "ĠPar": 2217,
      "hing": 2218,
      "ĠHis": 2219,
      "itle": 2220,
      "Ġbegin": 2221,
      "Ġquality": 2222,
      "ried": 2223,
      "Ġwebsite": 2224,
      "ĠWill": 2225,
      "ĠSept": 2226,
      "onse": 2227,
      "hel": 2228,
      "time": 2229,
      "Ġaddress": 2230,
      "ault": 2231,
      "ĠNorth": 2232,
      "irm": 2233,
      "head": 2234,
      "Ġmot": 2235,
      "##": 2236,
      "add": 2237,
      "ype": 2238,
      "ĠDo": 2239,
      "Ġmedia": 2240,
      "though": 2241,
      "Ġcell": 2242,
      "ĠHar": 2243,
      "ĠJune": 2244,
      "Ġrespect": 2245,
      "tr": 2246,
      "Ġwind": 2247,
      "ruction": 2248,
      "ression": 2249,
      "room": 2250,
      "ĠServ": 2251,
      "used": 2252,
      "ibr": 2253,
      "ests": 2254,
      "Ġrespons": 2255,
      "ief": 2256,
      "itted": 2257,
      "Ġexist": 2258,
      "ili": 2259,
      "frac": 2260,
      "face": 2261,
      "cember": 2262,
      "Ġenvironment": 2263,
      "oph": 2264,
      "Ġcharacter": 2265,
      "Ġprivate": 2266,
      "ĠGl": 2267,
      "Ġphys": 2268,
      "Ġbuy": 2269,
      "Ġheart": 2270,
      "ĠĊ": 2271,
      "Ġshare": 2272,
      "ovember": 2273,
      "ification": 2274,
      "Ġconsider": 2275,
      "ait": 2276,
      "mit": 2277,
      "Ġder": 2278,
      "irt": 2279,
      "unch": 2280,
      "Ġcontent": 2281,
      "br": 2282,
      "Ġcal": 2283,
      "asing": 2284,
      "ĠEd": 2285,
      "Ġcompanies": 2286,
      "anks": 2287,
      "Ġund": 2288,
      "Ġpage": 2289,
      "ands": 2290,
      "ĠJuly": 2291,
      "Ġissues": 2292,
      "atural": 2293,
      "Ġface": 2294,
      "Ġcommon": 2295,
      "ception": 2296,
      "uation": 2297,
      "Ġdeath": 2298,
      "Ġbuilding": 2299,
      "alt": 2300,
      "Ġrole": 2301,
      "Ġhours": 2302,
      "ĠPresident": 2303,
      "ĠWar": 2304,
      "ĠFeb": 2305,
      "ml": 2306,
      "ĠReg": 2307,
      "minist": 2308,
      "ĠMr": 2309,
      "ĠBar": 2310,
      "Ġbreak": 2311,
      "earch": 2312,
      "Ġbeaut": 2313,
      "ournal": 2314,
      "Ġens": 2315,
      "Ġannoun": 2316,
      "Ġquick": 2317,
      "ĠÑģ": 2318,
      "Ġmess": 2319,
      "ĠCor": 2320,
      "Ġtext": 2321,
      "Ġrange": 2322,
      "ĠArt": 2323,
      "ĠBrit": 2324,
      "Ġsugg": 2325,
      "ĠCO": 2326,
      "Ġaud": 2327,
      "Ġaction": 2328,
      "Ġprevious": 2329,
      "ops": 2330,
      "pecially": 2331,
      "Ġwhole": 2332,
      "cil": 2333,
      "ĠQu": 2334,
      "Ġstruct": 2335,
      "Ġdeterm": 2336,
      "Ġvideo": 2337,
      "Ġhalf": 2338,
      "ux": 2339,
      "ĠEl": 2340,
      "Ġmor": 2341,
      "umb": 2342,
      "empt": 2343,
      "selves": 2344,
      "augh": 2345,
      "clus": 2346,
      "Ð¾Ð²": 2347,
      "chie": 2348,
      "elling": 2349,
      "Ġcut": 2350,
      "Ġamount": 2351,
      "Ġtechnology": 2352,
      "Ar": 2353,
      "Ġposition": 2354,
      "Ã¤": 2355,
      "epend": 2356,
      "opy": 2357,
      "Ġsent": 2358,
      "Ġeasy": 2359,
      "Ġobs": 2360,
      "icro": 2361,
      "urg": 2362,
      "Ġarg": 2363,
      "Ġcond": 2364,
      "Ġgeneral": 2365,
      "Ġsignificant": 2366,
      "Ġlat": 2367,
      "Ġage": 2368,
      "Ġhy": 2369,
      "ari": 2370,
      "Ġbelow": 2371,
      "Ġsimilar": 2372,
      "ana": 2373,
      "Ġestab": 2374,
      "Ġpo": 2375,
      "Ġinfl": 2376,
      "Ġdou": 2377,
      "ends": 2378,
      "Ġparticip": 2379,
      "sec": 2380,
      "Ġtaken": 2381,
      "ĠNot": 2382,
      "Ġassoci": 2383,
      "ules": 2384,
      "Ġsong": 2385,
      "Ġcontact": 2386,
      "Ġeither": 2387,
      "Ġfriends": 2388,
      "Ġago": 2389,
      "EC": 2390,
      "Id": 2391,
      "Ġalmost": 2392,
      "istic": 2393,
      "ĠTw": 2394,
      "div": 2395,
      "Ġfall": 2396,
      "Ġbelieve": 2397,
      "Ġperformance": 2398,
      "When": 2399,
      "Ġnational": 2400,
      "Ġ</": 2401,
      "Ġparent": 2402,
      "ledge": 2403,
      "key": 2404,
      "rain": 2405,
      "Ġdescrib": 2406,
      "AM": 2407,
      "Ġthird": 2408,
      "ĠSoc": 2409,
      "new": 2410,
      "ips": 2411,
      "Sh": 2412,
      "ĠStud": 2413,
      "icult": 2414,
      "****": 2415,
      "Ġfail": 2416,
      "ĠSeptember": 2417,
      "Ġsix": 2418,
      "bb": 2419,
      "Ġlog": 2420,
      "Ġtaking": 2421,
      "Ġsoft": 2422,
      "Ġwalk": 2423,
      "--------": 2424,
      "Ġpie": 2425,
      "ĠAfter": 2426,
      "oe": 2427,
      "Ġrepl": 2428,
      "ĠDecember": 2429,
      "Ġcompl": 2430,
      "Ġimpact": 2431,
      "era": 2432,
      "Ġrad": 2433,
      "Ð·": 2434,
      "ĠBy": 2435,
      "lin": 2436,
      "ological": 2437,
      "Ġhot": 2438,
      "Ġhost": 2439,
      "Ġeverything": 2440,
      "rug": 2441,
      "ĠDav": 2442,
      "cle": 2443,
      "ĠOctober": 2444,
      "ĠAugust": 2445,
      "year": 2446,
      "cont": 2447,
      "ĠAmerica": 2448,
      "ĠNovember": 2449,
      "ĠSch": 2450,
      "!!": 2451,
      "ication": 2452,
      "Ġvarious": 2453,
      "Ġcoll": 2454,
      "gress": 2455,
      "Ġidea": 2456,
      "ĠHealth": 2457,
      "ided": 2458,
      "ĠNews": 2459,
      "Ġclose": 2460,
      "rag": 2461,
      "Ġfront": 2462,
      "Ġissue": 2463,
      "cial": 2464,
      "Ġdom": 2465,
      "Ġcontrib": 2466,
      "ĠPer": 2467,
      "Ġmiss": 2468,
      "Ġentire": 2469,
      "ĠWest": 2470,
      "ites": 2471,
      "ĠPe": 2472,
      "Ġnecess": 2473,
      "('": 2474,
      "Ġsat": 2475,
      "Ġrather": 2476,
      "hib": 2477,
      "ply": 2478,
      "ĠRuss": 2479,
      "Ġintern": 2480,
      "ham": 2481,
      "ev": 2482,
      "Ġupd": 2483,
      "Ġpack": 2484,
      "ĠChe": 2485,
      "Ġbar": 2486,
      "Ġhowever": 2487,
      "ĠHer": 2488,
      "Ġaccording": 2489,
      "hold": 2490,
      "Ð¹": 2491,
      "Ġblack": 2492,
      "Ġsubject": 2493,
      "Ð¿": 2494,
      "Ġgen": 2495,
      "ament": 2496,
      "ysis": 2497,
      "ully": 2498,
      "Ġareas": 2499,
      "omes": 2500,
      "col": 2501,
      "Ġfoot": 2502,
      "Ġabs": 2503,
      "Ġrelationship": 2504,
      "Ġgames": 2505,
      "ĠPa": 2506,
      "iction": 2507,
      "pper": 2508,
      "HE": 2509,
      "Ġsize": 2510,
      "ground": 2511,
      "ĠCour": 2512,
      "Ġheld": 2513,
      "Ġess": 2514,
      "ĠGerm": 2515,
      "ĠCounty": 2516,
      "ille": 2517,
      "Ġanything": 2518,
      "rel": 2519,
      "Ġselect": 2520,
      "ĠHouse": 2521,
      "apt": 2522,
      "ci": 2523,
      "off": 2524,
      "Ġtotal": 2525,
      "ĠDes": 2526,
      "ires": 2527,
      "ĠMus": 2528,
      "Ġtrying": 2529,
      "atory": 2530,
      "eal": 2531,
      "Ġminutes": 2532,
      "ĠDr": 2533,
      "Ġshows": 2534,
      "su": 2535,
      "ems": 2536,
      "Ġevents": 2537,
      "Ph": 2538,
      "Ġmember": 2539,
      "raft": 2540,
      "Ġpolitical": 2541,
      "ondon": 2542,
      "Ġdig": 2543,
      "itch": 2544,
      "ender": 2545,
      "Ġperfect": 2546,
      "Ġrequired": 2547,
      "Ġlikely": 2548,
      "Ġcirc": 2549,
      "Ġformer": 2550,
      "cast": 2551,
      "Ġclos": 2552,
      "Ġstay": 2553,
      "aving": 2554,
      "Ġshall": 2555,
      "Ġtravel": 2556,
      "ables": 2557,
      "))": 2558,
      "Ġsomeone": 2559,
      "Ġexam": 2560,
      "iple": 2561,
      "ruary": 2562,
      "Ġop": 2563,
      "Ġfile": 2564,
      "ensive": 2565,
      "ĠSm": 2566,
      "ĠAfric": 2567,
      "ecut": 2568,
      "action": 2569,
      "Ġfeatures": 2570,
      "uk": 2571,
      "Ġoriginal": 2572,
      "ĠPark": 2573,
      "Ġcred": 2574,
      "Ġ--": 2575,
      "Ġagre": 2576,
      "Ġespecially": 2577,
      "ouncil": 2578,
      "Ġcomput": 2579,
      "Ġdeg": 2580,
      "Ġ>": 2581,
      "Ġwatch": 2582,
      "Ġcollect": 2583,
      "Ġcontinue": 2584,
      "Ġmanagement": 2585,
      "Ġtool": 2586,
      "ude": 2587,
      "ET": 2588,
      "Ġquite": 2589,
      "Ġachie": 2590,
      "ĠMark": 2591,
      "ĠÐ½": 2592,
      "Ġred": 2593,
      "Ġimprove": 2594,
      "Ġrecogn": 2595,
      "ama": 2596,
      "Ġbehind": 2597,
      "Ġmass": 2598,
      "Ġprovided": 2599,
      "Ġpoints": 2600,
      "ogle": 2601,
      "ey": 2602,
      "ises": 2603,
      "Ġupon": 2604,
      "ĠCenter": 2605,
      "opt": 2606,
      "label": 2607,
      "Ġoffice": 2608,
      "ĠFin": 2609,
      "Res": 2610,
      "oud": 2611,
      "ington": 2612,
      "eq": 2613,
      "nov": 2614,
      "Cl": 2615,
      "Ñħ": 2616,
      "Ġrisk": 2617,
      "ores": 2618,
      "Ġprim": 2619,
      "Ġground": 2620,
      "Ġliving": 2621,
      "Ġdifficult": 2622,
      "Com": 2623,
      "leased": 2624,
      "Ġreceived": 2625,
      "Ġwond": 2626,
      "ald": 2627,
      "Ġattack": 2628,
      "oved": 2629,
      "Ġproperty": 2630,
      "itte": 2631,
      "aching": 2632,
      "adem": 2633,
      "Ġprice": 2634,
      "ij": 2635,
      "Ġadded": 2636,
      "ica": 2637,
      "Ġtable": 2638,
      "umn": 2639,
      "Ġasked": 2640,
      "iddle": 2641,
      "Ġofficial": 2642,
      "come": 2643,
      "sy": 2644,
      "Ġtraining": 2645,
      "Ġviol": 2646,
      "ta": 2647,
      "ĠOur": 2648,
      "rect": 2649,
      "Ġmatter": 2650,
      "uild": 2651,
      "ĠAustral": 2652,
      "anguage": 2653,
      "Ġwanted": 2654,
      "Ġinternational": 2655,
      "name": 2656,
      "Ġrecent": 2657,
      "Ġep": 2658,
      "aining": 2659,
      "Ġrights": 2660,
      "ederal": 2661,
      "Ġdest": 2662,
      "Ġleaders": 2663,
      "Ġill": 2664,
      "Ġcases": 2665,
      "Ġneeded": 2666,
      "Ġtarget": 2667,
      "Ġneg": 2668,
      "Ġhon": 2669,
      "Ġchanges": 2670,
      "bar": 2671,
      "Ġopp": 2672,
      "Ã¼": 2673,
      "So": 2674,
      "Ġeducation": 2675,
      "ety": 2676,
      "Name": 2677,
      "uge": 2678,
      "Ġversion": 2679,
      "itary": 2680,
      "Ġwords": 2681,
      "atur": 2682,
      "Ġprovides": 2683,
      "hern": 2684,
      "Ġstaff": 2685,
      "Ġcoming": 2686,
      "raw": 2687,
      "Ġregard": 2688,
      "Ġglobal": 2689,
      "ength": 2690,
      "Ġforward": 2691,
      "Ġsecurity": 2692,
      "ĠRec": 2693,
      "Ġbad": 2694,
      "eta": 2695,
      "icles": 2696,
      "Ġpotential": 2697,
      "Ġsearch": 2698,
      "ees": 2699,
      "roid": 2700,
      "US": 2701,
      "medi": 2702,
      "Ġrecomm": 2703,
      "Ġfig": 2704,
      "Ġaccept": 2705,
      "roups": 2706,
      "Ã¶": 2707,
      "ceed": 2708,
      "amed": 2709,
      "Ġcreated": 2710,
      "Ġconcern": 2711,
      "Ġpatients": 2712,
      "Ġcode": 2713,
      "aur": 2714,
      "Ġpolicy": 2715,
      "Ġfinancial": 2716,
      "Ġcourt": 2717,
      "da": 2718,
      "Ġsym": 2719,
      "Ġnothing": 2720,
      "Ġden": 2721,
      "ĠInt": 2722,
      "Ġquestions": 2723,
      "Ġpath": 2724,
      "ĠJust": 2725,
      "reet": 2726,
      "With": 2727,
      "Ġpurch": 2728,
      "bum": 2729,
      "this": 2730,
      "ext": 2731,
      "Ġwriting": 2732,
      "RO": 2733,
      "AP": 2734,
      "based": 2735,
      "Ġexperien": 2736,
      "gr": 2737,
      "ĠInternational": 2738,
      "Ġincrease": 2739,
      "Ġansw": 2740,
      "Ġinvestig": 2741,
      "Ġterms": 2742,
      "Ġbecame": 2743,
      "Ġarticle": 2744,
      "Ġmoment": 2745,
      "ĠUK": 2746,
      "pre": 2747,
      "icated": 2748,
      "Ġwhite": 2749,
      "Ġparty": 2750,
      "ague": 2751,
      "ession": 2752,
      "ĠDon": 2753,
      "Ġcountries": 2754,
      "Ġsystems": 2755,
      "ĠOff": 2756,
      "eed": 2757,
      "oring": 2758,
      "Ġbrand": 2759,
      "mb": 2760,
      "Ġanim": 2761,
      "overed": 2762,
      "fully": 2763,
      "urb": 2764,
      "ĠMon": 2765,
      "ĠLaw": 2766,
      "Un": 2767,
      "====": 2768,
      "Ġprobably": 2769,
      "aign": 2770,
      "Ġpopular": 2771,
      "arning": 2772,
      "Ġpret": 2773,
      "Ġpers": 2774,
      "ÐµÑĢ": 2775,
      "ĠFebruary": 2776,
      "Ġincludes": 2777,
      "ension": 2778,
      "Ġpain": 2779,
      "Ġeveryone": 2780,
      "ser": 2781,
      "Ġboard": 2782,
      "Ġsimple": 2783,
      "Ġdate": 2784,
      "ĠLondon": 2785,
      "ava": 2786,
      "where": 2787,
      "inary": 2788,
      "alse": 2789,
      "Ġhigher": 2790,
      "Ġpict": 2791,
      "Ġassist": 2792,
      "Ġdam": 2793,
      "Ġcomplete": 2794,
      "Ġcannot": 2795,
      "Ġpick": 2796,
      "Cont": 2797,
      "Ð±": 2798,
      "Ġimm": 2799,
      "Ġsoon": 2800,
      "Ġseems": 2801,
      "Ġways": 2802,
      "Ġrate": 2803,
      "Ġdefin": 2804,
      "ĠMich": 2805,
      "Ġlink": 2806,
      "Ġfire": 2807,
      "EL": 2808,
      "uel": 2809,
      "ĠIndia": 2810,
      "ĠSw": 2811,
      "Ġinstall": 2812,
      "pm": 2813,
      "aced": 2814,
      "Ġproduction": 2815,
      "$,": 2816,
      "iful": 2817,
      "ging": 2818,
      "Ġroad": 2819,
      "Ġste": 2820,
      "aker": 2821,
      "Ġengine": 2822,
      "Ġsuggest": 2823,
      "Ġoutside": 2824,
      "Ġcontract": 2825,
      "Ġpropos": 2826,
      "Ġlay": 2827,
      "idth": 2828,
      "ription": 2829,
      "ached": 2830,
      "$.": 2831,
      "ĠMore": 2832,
      "ĠSer": 2833,
      "Ġver": 2834,
      "Ġoffers": 2835,
      "Ġpaper": 2836,
      "rick": 2837,
      "Ġuser": 2838,
      "ivity": 2839,
      "Ġnetwork": 2840,
      "nes": 2841,
      "Ġtakes": 2842,
      "Ġnorm": 2843,
      "Ġisn": 2844,
      "field": 2845,
      "ctor": 2846,
      "order": 2847,
      ".)": 2848,
      "Ġbegan": 2849,
      "Ġbi": 2850,
      "Ġpred": 2851,
      "izing": 2852,
      "ĠHigh": 2853,
      "Ġnatural": 2854,
      "All": 2855,
      "New": 2856,
      "ha": 2857,
      "atform": 2858,
      "cite": 2859,
      "ĠLa": 2860,
      "ivil": 2861,
      "ĠKing": 2862,
      "mon": 2863,
      "Ġproblems": 2864,
      "ospital": 2865,
      "sub": 2866,
      "oke": 2867,
      "Ġcover": 2868,
      "Ġsimply": 2869,
      "anced": 2870,
      "Ġsense": 2871,
      "Ġvia": 2872,
      "Ġsection": 2873,
      "Ġcareer": 2874,
      "ett": 2875,
      "Ġtown": 2876,
      "Ġdu": 2877,
      "ÐµÐ½": 2878,
      "Ġclean": 2879,
      "Ġworked": 2880,
      "ĠChar": 2881,
      "Ġdecision": 2882,
      "Ġintrodu": 2883,
      "urance": 2884,
      "import": 2885,
      "oice": 2886,
      "ding": 2887,
      "ĠChina": 2888,
      "Ð³": 2889,
      "Ġtrack": 2890,
      "ese": 2891,
      "uments": 2892,
      "ĠCourt": 2893,
      "Ġhope": 2894,
      "ĠYour": 2895,
      "Ġconsum": 2896,
      "itution": 2897,
      "Ġhit": 2898,
      "class": 2899,
      "Ġitself": 2900,
      "eks": 2901,
      "Ġlate": 2902,
      "bor": 2903,
      "ĠDirect": 2904,
      "aily": 2905,
      "oo": 2906,
      "Ġut": 2907,
      "Ġlives": 2908,
      "Ġsaw": 2909,
      "vis": 2910,
      "Ġapproach": 2911,
      "inks": 2912,
      "ĠOf": 2913,
      "itute": 2914,
      "ael": 2915,
      "Ġcele": 2916,
      "Ġgirl": 2917,
      "ĠDepartment": 2918,
      "Ġtradition": 2919,
      "Ġreported": 2920,
      "astic": 2921,
      "ĠAng": 2922,
      "erc": 2923,
      "ĠEnglish": 2924,
      "Ġbed": 2925,
      "hood": 2926,
      "........": 2927,
      "Ġson": 2928,
      "ĠVal": 2929,
      "etimes": 2930,
      "Ġunique": 2931,
      "Ġtreatment": 2932,
      "Ġapplication": 2933,
      "Ġrequest": 2934,
      "ufact": 2935,
      "Ġque": 2936,
      "airs": 2937,
      "ĠAssoci": 2938,
      "asc": 2939,
      "IL": 2940,
      "Ġcurrently": 2941,
      "Ġvari": 2942,
      "left": 2943,
      "atives": 2944,
      "ION": 2945,
      "ades": 2946,
      "ĠII": 2947,
      "Ġprint": 2948,
      "orks": 2949,
      "Ġfavor": 2950,
      "Ġknowledge": 2951,
      "ING": 2952,
      "Ġdistrib": 2953,
      "Ġprior": 2954,
      "At": 2955,
      "ĠInc": 2956,
      "Ġgrowth": 2957,
      "lier": 2958,
      "Ġthroughout": 2959,
      "ĠPat": 2960,
      "Ġsource": 2961,
      "Ġdeep": 2962,
      "oper": 2963,
      "sk": 2964,
      "Ġmother": 2965,
      "ocal": 2966,
      "Ġloss": 2967,
      "ager": 2968,
      "ĠHol": 2969,
      "ĠÐ¸": 2970,
      "OT": 2971,
      "Ġemb": 2972,
      "Ġplayers": 2973,
      "ittee": 2974,
      "Ġveh": 2975,
      "Ġsens": 2976,
      "Ġthemselves": 2977,
      "light": 2978,
      "apan": 2979,
      "agement": 2980,
      "ĠTrump": 2981,
      "Ġopportunity": 2982,
      "aging": 2983,
      "Ġinj": 2984,
      "Ġbooks": 2985,
      "Ġtour": 2986,
      "Ġgroups": 2987,
      "Ġincluded": 2988,
      "ĠSan": 2989,
      "UR": 2990,
      "mathcal": 2991,
      "Ġhimself": 2992,
      "Ġdocument": 2993,
      "Ġresponse": 2994,
      "ror": 2995,
      "Ġrunning": 2996,
      "Ġcook": 2997,
      "ĠGener": 2998,
      "ĊĠĠĠĠĠĠĠĠĠĠĠĠĠĠĠĠĠĠĠ": 2999,
      "Ġrecently": 3000,
      "attle": 3001,
      "Ġlonger": 3002,
      "atter": 3003,
      "Âł": 3004,
      "bf": 3005,
      "ĠNow": 3006,
      "enc": 3007,
      "ĠNet": 3008,
      "Ġpresident": 3009,
      "Ġjud": 3010,
      "itter": 3011,
      "Ġcy": 3012,
      "Ġprotect": 3013,
      "ford": 3014,
      "uses": 3015,
      "ĠFrom": 3016,
      "arc": 3017,
      "unt": 3018,
      "Ġbase": 3019,
      "arter": 3020,
      "Ġrelated": 3021,
      "Ġwritten": 3022,
      "ida": 3023,
      "Ġsepar": 3024,
      "Ġstyle": 3025,
      "Ġsect": 3026,
      "rown": 3027,
      "ams": 3028,
      "Ġdise": 3029,
      "ĠDay": 3030,
      "Ġlearning": 3031,
      "ges": 3032,
      "pose": 3033,
      "la": 3034,
      "iles": 3035,
      "Ġprofessional": 3036,
      "Is": 3037,
      "equation": 3038,
      "ridge": 3039,
      "Ġimage": 3040,
      "ÑĨ": 3041,
      "iforn": 3042,
      "imum": 3043,
      "Ġtru": 3044,
      "irth": 3045,
      "def": 3046,
      "ĠBlack": 3047,
      "Ġarch": 3048,
      "Ġimplement": 3049,
      "Ġconditions": 3050,
      "Ġmedical": 3051,
      "Ġtou": 3052,
      "aries": 3053,
      "ĠÐ¾": 3054,
      "Ġpractice": 3055,
      "AD": 3056,
      "Ġsus": 3057,
      "Ġemer": 3058,
      "ught": 3059,
      "obile": 3060,
      "Ġstates": 3061,
      "irit": 3062,
      "ny": 3063,
      "Ġregion": 3064,
      "http": 3065,
      "ĠTV": 3066,
      "acc": 3067,
      "iqu": 3068,
      "Ġexpected": 3069,
      "ags": 3070,
      "Ġpublished": 3071,
      "Ġconnect": 3072,
      "Ġstop": 3073,
      "ĠAcc": 3074,
      "Ġextra": 3075,
      "Ġbuilt": 3076,
      "Ġchalleng": 3077,
      "Ġvot": 3078,
      "aves": 3079,
      "rought": 3080,
      "Ġmodern": 3081,
      "Ġled": 3082,
      "sych": 3083,
      "Ġmeeting": 3084,
      "Ġlegal": 3085,
      "})": 3086,
      "ĠCons": 3087,
      "erved": 3088,
      "Ġinvolved": 3089,
      "CO": 3090,
      "resh": 3091,
      "Ġattempt": 3092,
      "idered": 3093,
      "Ġsett": 3094,
      "lim": 3095,
      "Ġinflu": 3096,
      "Ġwoman": 3097,
      "ĠSome": 3098,
      "Val": 3099,
      "ĠCommun": 3100,
      "Ġinside": 3101,
      "sequ": 3102,
      "Ġleave": 3103,
      "pi": 3104,
      "My": 3105,
      "useum": 3106,
      "orge": 3107,
      "à¤": 3108,
      "Ġcustomers": 3109,
      "Ġhistor": 3110,
      "Ġplease": 3111,
      "ifornia": 3112,
      "ressed": 3113,
      "Ġworth": 3114,
      "Ġhttp": 3115,
      "Ġadditional": 3116,
      "ibrary": 3117,
      "Ġheav": 3118,
      "Ġweb": 3119,
      "String": 3120,
      "Ġcampaign": 3121,
      "Ġoil": 3122,
      "Ġinstead": 3123,
      "ĊĠĠ": 3124,
      "Ġrelease": 3125,
      "unk": 3126,
      "Im": 3127,
      "pha": 3128,
      "ocr": 3129,
      ",\\": 3130,
      "Ġlost": 3131,
      "Ġpretty": 3132,
      "Ġwall": 3133,
      "Ġdesigned": 3134,
      "oul": 3135,
      "Ġpan": 3136,
      "Ġsex": 3137,
      "dom": 3138,
      ".'": 3139,
      "\")": 3140,
      "wood": 3141,
      "Ġweeks": 3142,
      "Ġmach": 3143,
      "rs": 3144,
      "lements": 3145,
      "Ġrev": 3146,
      "ĠSystem": 3147,
      "Ġconduct": 3148,
      "Ġdrug": 3149,
      "Ġvict": 3150,
      "Ġleading": 3151,
      "Ġalbum": 3152,
      "}.": 3153,
      "ĠDem": 3154,
      "Ġpolice": 3155,
      "Ġcard": 3156,
      "erve": 3157,
      "ares": 3158,
      "Ġexact": 3159,
      "Ġadminist": 3160,
      "ĊĊĠĠĠĠĠĠĠ": 3161,
      "Ġfram": 3162,
      "ashington": 3163,
      "Ġstri": 3164,
      "gl": 3165,
      "haps": 3166,
      "Ġensure": 3167,
      "Ġdecl": 3168,
      "iment": 3169,
      "ĠSen": 3170,
      "Ġfather": 3171,
      "ening": 3172,
      "Ġfight": 3173,
      "pite": 3174,
      "Ġregular": 3175,
      "Ġemail": 3176,
      "ĠRed": 3177,
      "nces": 3178,
      "ulations": 3179,
      "unction": 3180,
      "oes": 3181,
      "ĠIN": 3182,
      "Ġprevent": 3183,
      "ĠDavid": 3184,
      "ications": 3185,
      "Ġoptions": 3186,
      "pd": 3187,
      "Ġsil": 3188,
      "Ġcoun": 3189,
      "Ġcause": 3190,
      "Re": 3191,
      "Sc": 3192,
      "anger": 3193,
      "iber": 3194,
      "ties": 3195,
      "aches": 3196,
      "Ġcolor": 3197,
      "Ġdetails": 3198,
      "ĠAc": 3199,
      "resp": 3200,
      "Ð¾Ð´": 3201,
      "Ġband": 3202,
      "Ġcand": 3203,
      "Ġhor": 3204,
      "Ġactivities": 3205,
      "Ð¾ÑĢ": 3206,
      "Ġcomplex": 3207,
      "Ġfit": 3208,
      "BC": 3209,
      "rael": 3210,
      "ements": 3211,
      "Ġlower": 3212,
      "ĠTrans": 3213,
      "Ġinsp": 3214,
      "Ġblog": 3215,
      "Ġanyone": 3216,
      "gen": 3217,
      "Ġstandard": 3218,
      "vey": 3219,
      "Ġevidence": 3220,
      "Ġaverage": 3221,
      "ĠWhile": 3222,
      "Ġhttps": 3223,
      "Ġplayed": 3224,
      "ming": 3225,
      "ĊĊĠ": 3226,
      "Ġbeautiful": 3227,
      "ara": 3228,
      "illing": 3229,
      "Ġconsidered": 3230,
      "ico": 3231,
      "asons": 3232,
      "Ġbox": 3233,
      "Ġdiv": 3234,
      "Ġdraw": 3235,
      "Ġround": 3236,
      "Ġanalysis": 3237,
      "ĠÐº": 3238,
      "Ġcross": 3239,
      "ĠGroup": 3240,
      "Ġreve": 3241,
      "inter": 3242,
      "Ġbroad": 3243,
      "Ġeconomic": 3244,
      "Ġball": 3245,
      "Ġprep": 3246,
      "ĠFirst": 3247,
      "ĠMor": 3248,
      "Ġmag": 3249,
      "itation": 3250,
      "Ġreleased": 3251,
      "Ġplaying": 3252,
      "Ġreceive": 3253,
      "Ġten": 3254,
      "Ġplatform": 3255,
      "Ġstudent": 3256,
      "Ġtal": 3257,
      "ĠThen": 3258,
      "Ġimmedi": 3259,
      "Ġprojects": 3260,
      "Ġfast": 3261,
      "aged": 3262,
      "ado": 3263,
      "ĠEuropean": 3264,
      "Ġsold": 3265,
      "ĠBritish": 3266,
      "Ġdie": 3267,
      "uted": 3268,
      "Ġreading": 3269,
      "Ġlanguage": 3270,
      "ĠOb": 3271,
      "One": 3272,
      "td": 3273,
      "ĠCouncil": 3274,
      "ctions": 3275,
      "board": 3276,
      "chan": 3277,
      "ĠBook": 3278,
      "lying": 3279,
      "Ġwasn": 3280,
      "No": 3281,
      "span": 3282,
      "Ġnecessary": 3283,
      "ĠAir": 3284,
      "rim": 3285,
      "omb": 3286,
      "hem": 3287,
      "ĠCollege": 3288,
      "rench": 3289,
      "Ġtitle": 3290,
      "istry": 3291,
      "LE": 3292,
      "Col": 3293,
      "Ġfelt": 3294,
      "Ġautom": 3295,
      "Ġdriv": 3296,
      "Ġhol": 3297,
      "pri": 3298,
      "Ġusers": 3299,
      "Ġdisplay": 3300,
      "Ġetc": 3301,
      "ĠJapan": 3302,
      "Ġhop": 3303,
      "https": 3304,
      "verse": 3305,
      "ĠWilliam": 3306,
      "Ġlevels": 3307,
      "Type": 3308,
      "Ġlatest": 3309,
      "mission": 3310,
      "ĠCalifornia": 3311,
      "estern": 3312,
      "That": 3313,
      "Ġmention": 3314,
      "rig": 3315,
      "List": 3316,
      "Ġmovie": 3317,
      "Ġscreen": 3318,
      "ography": 3319,
      "rab": 3320,
      "}_": 3321,
      "ĠEast": 3322,
      "oom": 3323,
      "see": 3324,
      "ĠHist": 3325,
      "Ġter": 3326,
      "duc": 3327,
      "ĠResearch": 3328,
      "Ġhands": 3329,
      "Ġmix": 3330,
      "Ġmanufact": 3331,
      "}^": 3332,
      "rast": 3333,
      "Ġmatch": 3334,
      "Ġ...": 3335,
      "wise": 3336,
      "Ġusually": 3337,
      "Ġsolution": 3338,
      "Ġserious": 3339,
      "Ġwonder": 3340,
      "Ð°Ð½": 3341,
      "down": 3342,
      "Ġvalues": 3343,
      "body": 3344,
      "Ġsubs": 3345,
      "Ġsurpr": 3346,
      "like": 3347,
      "Ġplans": 3348,
      "idents": 3349,
      "ĠStreet": 3350,
      "Ġcomment": 3351,
      "Ġcharg": 3352,
      "ĠDis": 3353,
      "Ġcouple": 3354,
      "Ġgave": 3355,
      "Ġinterview": 3356,
      "ĠPal": 3357,
      "Ġblock": 3358,
      "Ġstru": 3359,
      "ĠEar": 3360,
      "Ð¾Ð¼": 3361,
      "vest": 3362,
      "Ġgoal": 3363,
      "isions": 3364,
      "yond": 3365,
      "rant": 3366,
      "Ġbehav": 3367,
      "Ġindepend": 3368,
      "ened": 3369,
      "Ġwrite": 3370,
      "Ġability": 3371,
      "Ġmultiple": 3372,
      "ĠCanada": 3373,
      "Ġnature": 3374,
      "Ġgradu": 3375,
      "ĊĠĠĠĠĠĠĠĠĠ": 3376,
      "Ġextrem": 3377,
      "Ġparents": 3378,
      "imately": 3379,
      "etic": 3380,
      "Ð°Ð»": 3381,
      "ĠSim": 3382,
      "Ġready": 3383,
      "Ġwrong": 3384,
      "riday": 3385,
      "IG": 3386,
      "Ġprograms": 3387,
      "log": 3388,
      "atal": 3389,
      "].": 3390,
      "rang": 3391,
      "Ġresources": 3392,
      "ville": 3393,
      "Ġsle": 3394,
      "OS": 3395,
      "iring": 3396,
      "Ġannounced": 3397,
      "zz": 3398,
      "ÑģÐº": 3399,
      "Ġdead": 3400,
      "Ġspeak": 3401,
      "Ġsubst": 3402,
      "ĠWashington": 3403,
      "Ġrelig": 3404,
      "html": 3405,
      "ĠÐ´": 3406,
      "Ġcapt": 3407,
      "rote": 3408,
      "Ġpartners": 3409,
      "Ġ*/": 3410,
      "ura": 3411,
      "ilies": 3412,
      "Ġprinc": 3413,
      "~\\": 3414,
      "Ġwhose": 3415,
      "Ġlooks": 3416,
      "rie": 3417,
      "Ġrout": 3418,
      "Ġbott": 3419,
      "Ġbal": 3420,
      "Ċĉĉĉĉ": 3421,
      "ords": 3422,
      "Ġattention": 3423,
      "Ġeyes": 3424,
      "Ġideas": 3425,
      "ellow": 3426,
      "just": 3427,
      "Ð¾Ð»": 3428,
      "View": 3429,
      "Ġlocated": 3430,
      "ences": 3431,
      "Ġthreat": 3432,
      "do": 3433,
      "Ġmorning": 3434,
      "inated": 3435,
      "Ġkids": 3436,
      "Ġculture": 3437,
      "mercial": 3438,
      "Ġsales": 3439,
      "Ġeffic": 3440,
      "Ġquickly": 3441,
      "Ġdark": 3442,
      "cks": 3443,
      "ĠPaul": 3444,
      "Ġsn": 3445,
      "Ġboy": 3446,
      "Ġknew": 3447,
      "Ġgoes": 3448,
      "Ġcorrect": 3449,
      "osing": 3450,
      "type": 3451,
      "Ġmid": 3452,
      "Ġtrust": 3453,
      "ĠDist": 3454,
      "Ã¨": 3455,
      "Ġbrought": 3456,
      "Ġinteresting": 3457,
      "Ġyourself": 3458,
      "Ġcenter": 3459,
      "Ġbank": 3460,
      "Ġstar": 3461,
      "Ġmilitary": 3462,
      "Ġsoftware": 3463,
      "esc": 3464,
      "ĠSy": 3465,
      "Ġid": 3466,
      "Ġtowards": 3467,
      "odel": 3468,
      "ternal": 3469,
      "ĠAre": 3470,
      "Ġborn": 3471,
      "Ġaw": 3472,
      "Ġsqu": 3473,
      "ĠProf": 3474,
      "lied": 3475,
      "ĠIndian": 3476,
      "!\"": 3477,
      "Ġcollection": 3478,
      "Ġstories": 3479,
      "Ad": 3480,
      "Ġdeveloped": 3481,
      "Ġshown": 3482,
      "Ġfair": 3483,
      "het": 3484,
      "Ġpositive": 3485,
      "Ġsafety": 3486,
      "ĠRepublic": 3487,
      "Ġsaying": 3488,
      "Ġphone": 3489,
      "Ġsituation": 3490,
      "Ġ!": 3491,
      "Ġdemon": 3492,
      "ĠTechn": 3493,
      "elta": 3494,
      "azing": 3495,
      "Ġsummer": 3496,
      "Ġparts": 3497,
      "Ġstage": 3498,
      "Ġhear": 3499,
      "Ġer": 3500,
      "Ġsuff": 3501,
      "Ġacqu": 3502,
      "\":": 3503,
      "Ġblood": 3504,
      "}(": 3505,
      "ils": 3506,
      "Ġeffective": 3507,
      "Ġaward": 3508,
      "arily": 3509,
      "Ġdecided": 3510,
      "Ġdoor": 3511,
      "Ġwa": 3512,
      "oto": 3513,
      "Ġgives": 3514,
      "ecutive": 3515,
      "icate": 3516,
      "section": 3517,
      "Ġfix": 3518,
      "enty": 3519,
      "Ġcondition": 3520,
      "ĠSk": 3521,
      "urt": 3522,
      "mark": 3523,
      "bit": 3524,
      "Ġcosts": 3525,
      "Ġdrive": 3526,
      "onent": 3527,
      "Ġchoice": 3528,
      "umber": 3529,
      "ean": 3530,
      "Ġconsist": 3531,
      "Ġstore": 3532,
      "ĠĠĠĠĠ": 3533,
      "Ġcapital": 3534,
      "Ġchoose": 3535,
      "Ġanswer": 3536,
      "Our": 3537,
      "ĠAN": 3538,
      "Ġavoid": 3539,
      "bol": 3540,
      "aled": 3541,
      "ĠIsrael": 3542,
      "Ġwide": 3543,
      "Ġscient": 3544,
      "Ġmax": 3545,
      "Ġsal": 3546,
      "Ġpric": 3547,
      "Ġflow": 3548,
      "mitted": 3549,
      "Ġliter": 3550,
      "ĠAnt": 3551,
      "raz": 3552,
      "EO": 3553,
      "En": 3554,
      "Get": 3555,
      "odes": 3556,
      "ĠSund": 3557,
      "Ġpark": 3558,
      "Ġdigital": 3559,
      "var": 3560,
      "Tr": 3561,
      "Ġencou": 3562,
      "Ġheard": 3563,
      "hat": 3564,
      "isl": 3565,
      "Ġstreng": 3566,
      "Ġplant": 3567,
      "ports": 3568,
      "Ġchance": 3569,
      "ĠJames": 3570,
      "Ġlocation": 3571,
      "apter": 3572,
      "amic": 3573,
      "Ġ=>": 3574,
      "Ġpopulation": 3575,
      "Ġfrequ": 3576,
      "band": 3577,
      "Ġgiving": 3578,
      "Ġqual": 3579,
      "list": 3580,
      "Ġeffects": 3581,
      "After": 3582,
      "no": 3583,
      "box": 3584,
      "Ġge": 3585,
      "change": 3586,
      "ĠHere": 3587,
      "ache": 3588,
      "mas": 3589,
      "ero": 3590,
      "wide": 3591,
      "Ġnation": 3592,
      "Ġturned": 3593,
      "enge": 3594,
      "Ġteac": 3595,
      "Ġskills": 3596,
      "Ġdirectly": 3597,
      "Ġdog": 3598,
      "ĠÐ½Ð°": 3599,
      "Pl": 3600,
      "Ġmessage": 3601,
      "ulated": 3602,
      "men": 3603,
      "nown": 3604,
      "Ġhappy": 3605,
      "Ġorganization": 3606,
      "Ġlack": 3607,
      "Ġswe": 3608,
      "Ġaim": 3609,
      "itiz": 3610,
      "Ġdirector": 3611,
      "Ġstra": 3612,
      "Ġâ": 3613,
      "more": 3614,
      "IM": 3615,
      "Ġspeed": 3616,
      "Ð¾Ð³": 3617,
      "Ġneigh": 3618,
      "ĠOut": 3619,
      "Ġones": 3620,
      "Ġcomfort": 3621,
      "Ġphysical": 3622,
      "Ġstring": 3623,
      "____": 3624,
      "ĠTHE": 3625,
      "ĠBusiness": 3626,
      "Ġmis": 3627,
      "Ġorganiz": 3628,
      "Ġslow": 3629,
      "aly": 3630,
      "],": 3631,
      "Ind": 3632,
      "ĠPre": 3633,
      "Ġcelebr": 3634,
      "itect": 3635,
      "Ġforce": 3636,
      "Ġallows": 3637,
      "Ġremember": 3638,
      "icip": 3639,
      "itc": 3640,
      "Ġproviding": 3641,
      "ech": 3642,
      "Ġbillion": 3643,
      "Ġstudies": 3644,
      "ĠUs": 3645,
      "ĠBoard": 3646,
      "rack": 3647,
      "Ġmeasure": 3648,
      "bt": 3649,
      "Ġri": 3650,
      "IP": 3651,
      "Ġoccur": 3652,
      "iding": 3653,
      "ĠJack": 3654,
      "alpha": 3655,
      "Ġassociated": 3656,
      "Ġseek": 3657,
      "aughter": 3658,
      "Ġconcept": 3659,
      "Ġfarm": 3660,
      "Ġdetail": 3661,
      "ios": 3662,
      "She": 3663,
      "Ġassess": 3664,
      "ĠReview": 3665,
      "ĠInter": 3666,
      "ishing": 3667,
      "Ġfeature": 3668,
      "Ġfem": 3669,
      "Ġarriv": 3670,
      "Ġhous": 3671,
      "eters": 3672,
      "ago": 3673,
      "Ġstatement": 3674,
      "ĠAnn": 3675,
      "sum": 3676,
      "ĠCong": 3677,
      "ĠFriday": 3678,
      "ĠGeneral": 3679,
      "Ġfeed": 3680,
      "ambda": 3681,
      "Ġcredit": 3682,
      "ĠCompany": 3683,
      "ĠFace": 3684,
      "Ċĉĉĉ": 3685,
      "mp": 3686,
      "Ġhighly": 3687,
      "isf": 3688,
      "Ġprem": 3689,
      "Ġdownload": 3690,
      "ĠPost": 3691,
      "ĠIS": 3692,
      "Se": 3693,
      "ĠFound": 3694,
      "Ġscience": 3695,
      "rial": 3696,
      "gra": 3697,
      "></": 3698,
      "Ġwrote": 3699,
      "ancy": 3700,
      "Ġtried": 3701,
      "Ġdemand": 3702,
      "Ġhom": 3703,
      "ĠRet": 3704,
      "ecause": 3705,
      "force": 3706,
      "but": 3707,
      "place": 3708,
      "Ġgets": 3709,
      "Ġtypes": 3710,
      "return": 3711,
      "Ġschools": 3712,
      "Ġlic": 3713,
      "Ġfirm": 3714,
      "Ġlimited": 3715,
      "Ġoption": 3716,
      "ipment": 3717,
      "Ġinnov": 3718,
      "Ġweight": 3719,
      "ĠProgram": 3720,
      "rey": 3721,
      "Ġenter": 3722,
      "ĠBer": 3723,
      "uration": 3724,
      "Ġearn": 3725,
      "Ġroll": 3726,
      "ĠLet": 3727,
      "><": 3728,
      "Ġprec": 3729,
      "data": 3730,
      "Ġtemper": 3731,
      "ube": 3732,
      "'.": 3733,
      "Ġachieve": 3734,
      "Ġrespond": 3735,
      "Ġplayer": 3736,
      "den": 3737,
      "Ġcam": 3738,
      "ae": 3739,
      "ĠYear": 3740,
      "Ġconvers": 3741,
      "ying": 3742,
      "olf": 3743,
      "hest": 3744,
      "ĠJew": 3745,
      "ĠVol": 3746,
      "Ġincreasing": 3747,
      "lear": 3748,
      "Ġeasily": 3749,
      "Ġbud": 3750,
      "Ġprogress": 3751,
      "ĠPort": 3752,
      "ÑĢÐµ": 3753,
      "aby": 3754,
      "Ġsuccessful": 3755,
      "Ġerror": 3756,
      "ĠGet": 3757,
      "Ġrock": 3758,
      "ĠWhite": 3759,
      "Ġclub": 3760,
      "UT": 3761,
      "UN": 3762,
      "mar": 3763,
      "Ġfamilies": 3764,
      "bon": 3765,
      "Ġstructure": 3766,
      "Ġpiece": 3767,
      "ĠInstitute": 3768,
      "ĠRober": 3769,
      "iation": 3770,
      "Ġcool": 3771,
      "Ġsun": 3772,
      "ken": 3773,
      "bre": 3774,
      "Ġsurv": 3775,
      "Ġdisease": 3776,
      "Ġwel": 3777,
      "Ġearlier": 3778,
      "ĠGoogle": 3779,
      "ii": 3780,
      "Ġvariety": 3781,
      "uman": 3782,
      "CC": 3783,
      "ĠGreat": 3784,
      "iant": 3785,
      "Data": 3786,
      "ĠChurch": 3787,
      "Ġcentury": 3788,
      "Ġded": 3789,
      "Ġgas": 3790,
      "ategy": 3791,
      "Ġtrade": 3792,
      "Ġdevice": 3793,
      "Ġparticularly": 3794,
      "Ġap": 3795,
      "ĠGreen": 3796,
      "Ġimag": 3797,
      "igned": 3798,
      "ĠAssociation": 3799,
      "aturday": 3800,
      "Ġrecommend": 3801,
      "Ġlooked": 3802,
      "Ġreach": 3803,
      "ĠScience": 3804,
      "Ġbeyond": 3805,
      "ibly": 3806,
      "using": 3807,
      "Ġincreased": 3808,
      "berg": 3809,
      "Ġbenefits": 3810,
      "Ġgrand": 3811,
      "itar": 3812,
      "Ġregist": 3813,
      "Ġaware": 3814,
      "ĠDevelop": 3815,
      "istics": 3816,
      "mu": 3817,
      "ĠDan": 3818,
      "Ġrefer": 3819,
      "Ġang": 3820,
      "Ġbeginning": 3821,
      "Ġwife": 3822,
      "Ġcandid": 3823,
      "ĠRich": 3824,
      "Ġsort": 3825,
      "Ġthous": 3826,
      "Ġnearly": 3827,
      "Ġsche": 3828,
      "Ġhuge": 3829,
      "Ġdifference": 3830,
      "Ġsafe": 3831,
      "VID": 3832,
      "Ġpull": 3833,
      "Ġinform": 3834,
      "Ġfa": 3835,
      "ste": 3836,
      "Ġ==": 3837,
      "ĠAustralia": 3838,
      "ĠFrench": 3839,
      "lick": 3840,
      "lands": 3841,
      "Ġcompletely": 3842,
      "Ġdegree": 3843,
      "itude": 3844,
      "ĠPublic": 3845,
      "ĠEduc": 3846,
      "Ġgrowing": 3847,
      "Ġ)": 3848,
      "ĠHall": 3849,
      "Ġnovel": 3850,
      "Ġexcell": 3851,
      "overy": 3852,
      "Ġbus": 3853,
      "with": 3854,
      "Ġbound": 3855,
      "ĠService": 3856,
      "Ġactivity": 3857,
      "Ġmeaning": 3858,
      "Ġsen": 3859,
      "ĠPress": 3860,
      "From": 3861,
      "orage": 3862,
      "ros": 3863,
      "App": 3864,
      "imal": 3865,
      "fo": 3866,
      "Ġdat": 3867,
      "Ġsometimes": 3868,
      "ously": 3869,
      "Ġindividuals": 3870,
      "_\\": 3871,
      "iance": 3872,
      "Ġmer": 3873,
      "Ġfully": 3874,
      "ho": 3875,
      "ĠMichael": 3876,
      "rief": 3877,
      "amily": 3878,
      "Ġwood": 3879,
      "Ġunderstanding": 3880,
      "comp": 3881,
      "Ġcomputer": 3882,
      "Ġmyself": 3883,
      "ĠEv": 3884,
      "ENT": 3885,
      "Ġnamed": 3886,
      "Ġthinking": 3887,
      "Ġgreen": 3888,
      "Ġfalse": 3889,
      "urrent": 3890,
      "undred": 3891,
      "Ġreflect": 3892,
      "ĠArch": 3893,
      "Not": 3894,
      "Ġsell": 3895,
      "Ġpromot": 3896,
      "Ġstarting": 3897,
      "ĠMart": 3898,
      "Ñİ": 3899,
      "Ġrace": 3900,
      "Ġcopy": 3901,
      "Ġplaces": 3902,
      "Ġfine": 3903,
      "onday": 3904,
      "Ġserved": 3905,
      "Ġcateg": 3906,
      "Ġaltern": 3907,
      "rian": 3908,
      "Ġlargest": 3909,
      "ĠSunday": 3910,
      "ĠEngland": 3911,
      "Ġdied": 3912,
      "ius": 3913,
      "ĠOffice": 3914,
      "ĠBen": 3915,
      "Ġdro": 3916,
      "Ġsociety": 3917,
      "Ġspent": 3918,
      "Ġitems": 3919,
      "itable": 3920,
      "ÑĪ": 3921,
      "EM": 3922,
      "Le": 3923,
      "CH": 3924,
      "itz": 3925,
      "venue": 3926,
      "state": 3927,
      "Man": 3928,
      "ults": 3929,
      "icon": 3930,
      "oday": 3931,
      "Ġclin": 3932,
      "net": 3933,
      "ston": 3934,
      "Bl": 3935,
      "Ġtraditional": 3936,
      "rage": 3937,
      "Ġmodels": 3938,
      "ester": 3939,
      "IV": 3940,
      "yp": 3941,
      "Ġfederal": 3942,
      "Ġgovern": 3943,
      "Ġsem": 3944,
      "Ġexcept": 3945,
      "Ġvoid": 3946,
      "Ġfinally": 3947,
      "Ġnumbers": 3948,
      "includ": 3949,
      "Ġsave": 3950,
      "Ġbirth": 3951,
      "Ġvoice": 3952,
      "gest": 3953,
      "ĠPhil": 3954,
      "Ġemot": 3955,
      "eria": 3956,
      "met": 3957,
      "Ġnull": 3958,
      "Ġcivil": 3959,
      "Ġmount": 3960,
      "ĠRead": 3961,
      "ĠTex": 3962,
      "Ġaccom": 3963,
      "Ġcarry": 3964,
      "Ġparam": 3965,
      "Ġlif": 3966,
      "ĠGra": 3967,
      "izes": 3968,
      "annel": 3969,
      "Ġstock": 3970,
      "ĠThom": 3971,
      "ĠDel": 3972,
      "Ġult": 3973,
      "Ġtouch": 3974,
      "osition": 3975,
      "Ġbasis": 3976,
      "Ġclients": 3977,
      "Ġfloor": 3978,
      "phi": 3979,
      "ipl": 3980,
      "Ġgold": 3981,
      "Ġpurpose": 3982,
      "Ġclick": 3983,
      "Ġnote": 3984,
      "Ġdaily": 3985,
      "Ġremain": 3986,
      ")\\": 3987,
      "Ġemployees": 3988,
      "ĠWed": 3989,
      "ĠWind": 3990,
      "za": 3991,
      "Ġcast": 3992,
      "Ob": 3993,
      "Ġuses": 3994,
      "Ġactive": 3995,
      "Ġcalc": 3996,
      "Ġcontext": 3997,
      "Ġlines": 3998,
      "Ġmoved": 3999,
      "Ġbackground": 4000,
      "Ġnormal": 4001,
      "Ġallowed": 4002,
      "Ġcompared": 4003,
      "ĠÂ£": 4004,
      "PS": 4005,
      "Ġconv": 4006,
      "Ġconstruction": 4007,
      "Ġ`": 4008,
      "inn": 4009,
      "Ġmoving": 4010,
      "Ġreports": 4011,
      "Ġchanged": 4012,
      "Ġbusinesses": 4013,
      "ĠDef": 4014,
      "Ġcontinu": 4015,
      "Ġfresh": 4016,
      "Ġtransport": 4017,
      "Ġeval": 4018,
      "amma": 4019,
      "ellig": 4020,
      "ĠâĢ¢": 4021,
      "Ġdescribed": 4022,
      "ronic": 4023,
      "ĠCommission": 4024,
      "acity": 4025,
      "Ġeight": 4026,
      "ka": 4027,
      "ĠSuper": 4028,
      "Ġcustomer": 4029,
      "icine": 4030,
      "Ġapply": 4031,
      "ocks": 4032,
      "Ġstrateg": 4033,
      "estival": 4034,
      "DA": 4035,
      "ĠSol": 4036,
      "ulate": 4037,
      "ÑĢÐ¸": 4038,
      "Ġinitial": 4039,
      "Ġinvestment": 4040,
      "Ġimages": 4041,
      "Ġspirit": 4042,
      "ĠBr": 4043,
      "house": 4044,
      "Ġsolutions": 4045,
      "De": 4046,
      "OL": 4047,
      "Ġvill": 4048,
      "ĠBest": 4049,
      "ĠFacebook": 4050,
      "ander": 4051,
      "irection": 4052,
      "Ġpaid": 4053,
      "ĠMost": 4054,
      "ula": 4055,
      "iers": 4056,
      "Ġnar": 4057,
      "ĠKe": 4058,
      "Ġworkers": 4059,
      "Ġeffort": 4060,
      "inese": 4061,
      "Ġappropri": 4062,
      "ĠBre": 4063,
      "ĠAfrica": 4064,
      "ocol": 4065,
      "encies": 4066,
      "Ġinsurance": 4067,
      "Ġvan": 4068,
      "Ġple": 4069,
      "ÑĤÐ°": 4070,
      "eff": 4071,
      "Ġpattern": 4072,
      "Ġrules": 4073,
      "Ġfollowed": 4074,
      "Ġdream": 4075,
      "ancing": 4076,
      "II": 4077,
      "lo": 4078,
      "ÐµÐ»": 4079,
      "Ġsust": 4080,
      "Ġcorpor": 4081,
      "They": 4082,
      "ĠDirector": 4083,
      "mary": 4084,
      "ĠGold": 4085,
      "Ġcreating": 4086,
      "lor": 4087,
      "Ġfeet": 4088,
      "Ġsy": 4089,
      "param": 4090,
      "Ġload": 4091,
      "Ġestablished": 4092,
      "ĠLife": 4093,
      "Ġefforts": 4094,
      "hips": 4095,
      "ĠConf": 4096,
      "Ġnames": 4097,
      "Ġsend": 4098,
      "Ġalthough": 4099,
      "rupt": 4100,
      "Ġmaterials": 4101,
      "Ġbur": 4102,
      "Sp": 4103,
      "ĠSaturday": 4104,
      "hens": 4105,
      "Ġmechan": 4106,
      "Ġforeign": 4107,
      "Ġcollabor": 4108,
      "ca": 4109,
      "Ġcommercial": 4110,
      "Ġil": 4111,
      "Ġcharacters": 4112,
      "Ġrestaur": 4113,
      "arden": 4114,
      "Ġlength": 4115,
      "Ġtim": 4116,
      "ĠDec": 4117,
      "ona": 4118,
      "Ġsurface": 4119,
      "mathbb": 4120,
      "=\\": 4121,
      "Ġstream": 4122,
      "coming": 4123,
      "ĠSub": 4124,
      "oming": 4125,
      "')": 4126,
      "Ġinterested": 4127,
      "ĠMem": 4128,
      "Ġstrugg": 4129,
      "Ġanti": 4130,
      "Ġskin": 4131,
      "ĠMary": 4132,
      "Ġtransfer": 4133,
      "ĠWork": 4134,
      "Ġexpert": 4135,
      "Ġopportunities": 4136,
      "ĠFlor": 4137,
      "Ġcontain": 4138,
      "Ġthrow": 4139,
      "Ġamazing": 4140,
      "oyal": 4141,
      "code": 4142,
      "Ð¶": 4143,
      "Int": 4144,
      "ĠHome": 4145,
      "ĠFil": 4146,
      "ĠServices": 4147,
      "Ġseven": 4148,
      "Ġdouble": 4149,
      "Ġexactly": 4150,
      "ĠBel": 4151,
      "Ġcontinued": 4152,
      "Ġspect": 4153,
      "Ð¾Ð½": 4154,
      "ĠEven": 4155,
      "Ġstatus": 4156,
      "Ġhospital": 4157,
      "sey": 4158,
      "Qu": 4159,
      "ga": 4160,
      "porary": 4161,
      "reate": 4162,
      "ĠGovernment": 4163,
      "point": 4164,
      "olic": 4165,
      "ĠEvery": 4166,
      "Ġexpand": 4167,
      "Ġplanning": 4168,
      "Ġpen": 4169,
      "Ġvirt": 4170,
      "Ġwarm": 4171,
      "Ġmiddle": 4172,
      "ria": 4173,
      "atively": 4174,
      "ĠÐ·": 4175,
      "ĠMag": 4176,
      "ĠBank": 4177,
      "Ġattract": 4178,
      "IR": 4179,
      "cd": 4180,
      "UL": 4181,
      "ĠMac": 4182,
      "ĠPlay": 4183,
      "itely": 4184,
      "igma": 4185,
      "ervation": 4186,
      "ya": 4187,
      "ustr": 4188,
      "Ġalone": 4189,
      "Ġsatisf": 4190,
      "ota": 4191,
      "term": 4192,
      "Ġcells": 4193,
      "Ġnice": 4194,
      "ĠJournal": 4195,
      "ĠRel": 4196,
      "Ġfans": 4197,
      "Ġdemonstr": 4198,
      "Ġexhib": 4199,
      "Ġconsult": 4200,
      "Ġbrother": 4201,
      "Ġelectric": 4202,
      "Ġbenefit": 4203,
      "ĠAngel": 4204,
      "top": 4205,
      "ĠPlan": 4206,
      "ĠMat": 4207,
      "Ġconstant": 4208,
      "Ġaspect": 4209,
      "ĠLeg": 4210,
      "Ġpeace": 4211,
      "MS": 4212,
      "Ġmarketing": 4213,
      "Ġorigin": 4214,
      "Ġgreater": 4215,
      "Ġestim": 4216,
      "ĠSam": 4217,
      "Ġcertainly": 4218,
      "ĠCommittee": 4219,
      "$\\": 4220,
      "ĠChristian": 4221,
      "Ġhappened": 4222,
      "Ġteams": 4223,
      "irus": 4224,
      "Ġpatient": 4225,
      "Ġimpl": 4226,
      "Ġord": 4227,
      "ĠMal": 4228,
      "gar": 4229,
      "respond": 4230,
      "ifying": 4231,
      "AB": 4232,
      "Ġintegr": 4233,
      "Ġtools": 4234,
      "../": 4235,
      "Ġhour": 4236,
      "reci": 4237,
      "Ġserve": 4238,
      "Ab": 4239,
      "Ġhundred": 4240,
      "Ġhref": 4241,
      "ĠâĢ¦": 4242,
      "istan": 4243,
      "Ġpsych": 4244,
      "Ġcert": 4245,
      "Ġcommunities": 4246,
      "tained": 4247,
      "iences": 4248,
      "Ġwild": 4249,
      "iny": 4250,
      "ĠMonday": 4251,
      "Ġaffect": 4252,
      "ĠTexas": 4253,
      "iller": 4254,
      "Ġfear": 4255,
      "Ġmaintain": 4256,
      "Ġmovement": 4257,
      "Be": 4258,
      "vention": 4259,
      "eps": 4260,
      "Ġclimate": 4261,
      "uty": 4262,
      "ĠÐ¼": 4263,
      "edom": 4264,
      "Ġmethods": 4265,
      "Ġfavorite": 4266,
      "ĠOther": 4267,
      "Ġapplications": 4268,
      "Ġspread": 4269,
      "Ġpressure": 4270,
      "ĠÐ³": 4271,
      "Ġchurch": 4272,
      "ĠFranc": 4273,
      "well": 4274,
      "ĠSing": 4275,
      "ĠMusic": 4276,
      "Ġpow": 4277,
      "Ġequipment": 4278,
      "Ġappoint": 4279,
      "Ġcritical": 4280,
      "pecial": 4281,
      "isation": 4282,
      "Ġdeliver": 4283,
      "Ġestablish": 4284,
      "Ġcollege": 4285,
      "ĠClass": 4286,
      "Ġcry": 4287,
      "Ġmap": 4288,
      "ĠOF": 4289,
      "Ġwants": 4290,
      "ĠRem": 4291,
      "Ġpassed": 4292,
      "ĠÃł": 4293,
      "Ġrequirements": 4294,
      "ato": 4295,
      "ooth": 4296,
      "ĠMet": 4297,
      "Ġhair": 4298,
      "Ġcentral": 4299,
      "lig": 4300,
      "Ġjournal": 4301,
      "ĠFore": 4302,
      "AG": 4303,
      "ĠST": 4304,
      "uesday": 4305,
      "Ġexerc": 4306,
      "Ġimmediately": 4307,
      "Ġsites": 4308,
      "ette": 4309,
      "ÅĤ": 4310,
      "Ġ||": 4311,
      "Ġprimary": 4312,
      "ĠCap": 4313,
      "ĠGeorge": 4314,
      "Ġ?": 4315,
      "inner": 4316,
      "eful": 4317,
      "Ġannual": 4318,
      "ĠCongress": 4319,
      "ulf": 4320,
      "Ġexisting": 4321,
      "ursday": 4322,
      "Ġproced": 4323,
      "Ġremains": 4324,
      "Ġrates": 4325,
      "Ġmicro": 4326,
      "ounds": 4327,
      "iled": 4328,
      "Post": 4329,
      "Ġpoor": 4330,
      "Ġproduced": 4331,
      "Ġoverall": 4332,
      "Ġstuff": 4333,
      "ampions": 4334,
      "Ã³n": 4335,
      "Ġhelped": 4336,
      "public": 4337,
      "Ġcru": 4338,
      "roy": 4339,
      "ologies": 4340,
      "ranch": 4341,
      "ĠMil": 4342,
      "onents": 4343,
      "DE": 4344,
      "ĠSal": 4345,
      "Ġletter": 4346,
      "ĠJer": 4347,
      "Ġepis": 4348,
      "Ġperhaps": 4349,
      "Ġadvant": 4350,
      "Now": 4351,
      "Ã©s": 4352,
      "Ġsurround": 4353,
      "miss": 4354,
      "Ġshoot": 4355,
      "px": 4356,
      "amm": 4357,
      "Ġelements": 4358,
      "ĠSl": 4359,
      "ĠRob": 4360,
      "ĊĠĠĠĠĠĠĠĠĠĠĠĠĠĠĠĠĠĠĠĠĠĠĠĠ": 4361,
      "Ġiniti": 4362,
      "Ġchem": 4363,
      "edy": 4364,
      "Ġopin": 4365,
      "Ġtransl": 4366,
      "Ġconnection": 4367,
      "Ġcommit": 4368,
      "Ġcancer": 4369,
      "eared": 4370,
      "Ġpicture": 4371,
      "vere": 4372,
      "Ġleader": 4373,
      "Ġoperations": 4374,
      "Ġsch": 4375,
      "arant": 4376,
      "Ġcharge": 4377,
      "ĠEducation": 4378,
      "Ġpresented": 4379,
      "Ġpolic": 4380,
      "Ġquarter": 4381,
      "Ġtherefore": 4382,
      "Ġcouldn": 4383,
      "ĠOver": 4384,
      "item": 4385,
      "Ġabsol": 4386,
      "Ġfeeling": 4387,
      "Ġmobile": 4388,
      "akers": 4389,
      "atever": 4390,
      "ĠPM": 4391,
      "care": 4392,
      "ourney": 4393,
      "test": 4394,
      "Ġsetting": 4395,
      "Ġgrant": 4396,
      "atus": 4397,
      "actions": 4398,
      "SS": 4399,
      "ocation": 4400,
      "ĠAM": 4401,
      "ĠWell": 4402,
      "ĠSur": 4403,
      "Ġpurchase": 4404,
      "}^{": 4405,
      "aling": 4406,
      "\");": 4407,
      "Ġhelps": 4408,
      "Ġresponsible": 4409,
      "ĠFrance": 4410,
      "Ġclient": 4411,
      "NA": 4412,
      "levant": 4413,
      "ulture": 4414,
      "ĠManagement": 4415,
      "Ġagreement": 4416,
      "Ġsecret": 4417,
      "ena": 4418,
      "Ġlimit": 4419,
      "Ġtick": 4420,
      "ervice": 4421,
      "Ġvote": 4422,
      "Ġtalking": 4423,
      "While": 4424,
      "Ġcitiz": 4425,
      "OM": 4426,
      "ĠDevelopment": 4427,
      "Ġpet": 4428,
      "pective": 4429,
      "Ġnumer": 4430,
      "mathrm": 4431,
      "Ġreduce": 4432,
      "aper": 4433,
      "Ġquant": 4434,
      "Ġshot": 4435,
      "ĠSee": 4436,
      "string": 4437,
      "inate": 4438,
      "ano": 4439,
      "Ġeconomy": 4440,
      "mm": 4441,
      "Ġdoll": 4442,
      "rd": 4443,
      "Ġfigure": 4444,
      "-\\": 4445,
      "Ġ%": 4446,
      "erences": 4447,
      "Value": 4448,
      "ĠTom": 4449,
      "ini": 4450,
      "ĠGood": 4451,
      "ashion": 4452,
      "Ġsequ": 4453,
      "Ġbill": 4454,
      "ĠChinese": 4455,
      "ework": 4456,
      "********": 4457,
      "ĠRoad": 4458,
      "Ġbudget": 4459,
      "Ġproduce": 4460,
      "ĠLou": 4461,
      "Ġwish": 4462,
      "ĠUN": 4463,
      "Ġshared": 4464,
      "Ġjoin": 4465,
      "Ġtrip": 4466,
      "Ġvehicle": 4467,
      "ĠChristmas": 4468,
      "ĠUSA": 4469,
      "Ġreasons": 4470,
      "nesday": 4471,
      "Ġgoals": 4472,
      "Ġstraight": 4473,
      "ĠChild": 4474,
      "Ġwait": 4475,
      "Ġincome": 4476,
      "Ġmagn": 4477,
      "ĠGerman": 4478,
      "rive": 4479,
      "ÑĤÐ¸": 4480,
      "word": 4481,
      "ĠJes": 4482,
      "Ġthus": 4483,
      "Ġsale": 4484,
      "Ġlarger": 4485,
      "ki": 4486,
      "ĠDemocr": 4487,
      "ĠPeople": 4488,
      "Ġinput": 4489,
      "Ġcat": 4490,
      "efore": 4491,
      "ĠBay": 4492,
      "Ġanaly": 4493,
      "Ġsav": 4494,
      "ĠAlex": 4495,
      "Ġtrain": 4496,
      "ĠMiss": 4497,
      "Ġacadem": 4498,
      "Ġahead": 4499,
      "Ġgone": 4500,
      "Ġmission": 4501,
      "Ġmill": 4502,
      "ĠHistory": 4503,
      "cel": 4504,
      "Ġtoward": 4505,
      "standing": 4506,
      "path": 4507,
      "ĠStar": 4508,
      "Ġbeg": 4509,
      "ructure": 4510,
      "\\\\": 4511,
      "Ġbasic": 4512,
      "Ġoffered": 4513,
      "Ġexcellent": 4514,
      "Ġmaybe": 4515,
      "Ġunit": 4516,
      "Ġapprox": 4517,
      "Ġchallenge": 4518,
      "ĠAP": 4519,
      "oms": 4520,
      "imb": 4521,
      "ĠString": 4522,
      "CT": 4523,
      "width": 4524,
      "ella": 4525,
      "Ġmachine": 4526,
      "och": 4527,
      "Ġles": 4528,
      "ĠAtt": 4529,
      "Ġowners": 4530,
      "ĠSa": 4531,
      "RA": 4532,
      "Ġelement": 4533,
      "($": 4534,
      "ĠSociety": 4535,
      "Ġpowerful": 4536,
      "Ġenh": 4537,
      "Ġheat": 4538,
      "Ġcas": 4539,
      "Ġscen": 4540,
      "lambda": 4541,
      "Ġstation": 4542,
      "âĢ¢": 4543,
      "outhern": 4544,
      "ĠRiver": 4545,
      "ĠConst": 4546,
      "ĠMinister": 4547,
      "Ġdyn": 4548,
      "Ġtruth": 4549,
      "Ġhighest": 4550,
      "Ġindependent": 4551,
      "icks": 4552,
      "print": 4553,
      "Ġhus": 4554,
      "Ġcompleted": 4555,
      "anned": 4556,
      "ruit": 4557,
      "Ġelection": 4558,
      "Ġstrategy": 4559,
      "orial": 4560,
      "ĠAdd": 4561,
      "Ġhar": 4562,
      "Ġorganizations": 4563,
      "ĠSince": 4564,
      "CA": 4565,
      "ipe": 4566,
      "mod": 4567,
      "ĠFlorida": 4568,
      "Ġunc": 4569,
      "Ġlab": 4570,
      "ĠCare": 4571,
      "Ġinstance": 4572,
      "ĠTime": 4573,
      "Ġplus": 4574,
      "ĠSun": 4575,
      "Ġgraph": 4576,
      "}_{": 4577,
      "Ġdirection": 4578,
      "Ġdram": 4579,
      "ĠFe": 4580,
      "Ġtast": 4581,
      "Ġconfig": 4582,
      "Ġrepe": 4583,
      "known": 4584,
      "Ġeye": 4585,
      "ĠCOVID": 4586,
      "Ġartist": 4587,
      "Ġlegisl": 4588,
      "Ġmemory": 4589,
      "agram": 4590,
      "ĠGermany": 4591,
      "Ġopening": 4592,
      "usion": 4593,
      "edia": 4594,
      "value": 4595,
      "Ġprop": 4596,
      "soft": 4597,
      "Ġnotice": 4598,
      "ĠSocial": 4599,
      "Ġblue": 4600,
      "Do": 4601,
      "Ġreb": 4602,
      "Ġspot": 4603,
      "Ġscene": 4604,
      "osh": 4605,
      "Ġir": 4606,
      "ĠIntern": 4607,
      "iling": 4608,
      "Ġmur": 4609,
      "Ġchallenges": 4610,
      "eds": 4611,
      "Ġspecies": 4612,
      "ĠBill": 4613,
      "big": 4614,
      "Ġcris": 4615,
      "Read": 4616,
      "semb": 4617,
      "iques": 4618,
      "ĠCamp": 4619,
      "Ġactual": 4620,
      "ĠLord": 4621,
      "ira": 4622,
      "ĠSmith": 4623,
      "ĠStr": 4624,
      "ĠMuseum": 4625,
      "ĠMod": 4626,
      "SP": 4627,
      "Ġeth": 4628,
      "Don": 4629,
      "itchen": 4630,
      "works": 4631,
      "Ġobvious": 4632,
      "ĠHel": 4633,
      "////": 4634,
      "rapy": 4635,
      "Ġur": 4636,
      "Ġsports": 4637,
      "ĠAlso": 4638,
      "Ġ\\\\": 4639,
      "bert": 4640,
      "Ġharm": 4641,
      "ĠClub": 4642,
      "Ġtrou": 4643,
      "Ġcomments": 4644,
      "Ġclaims": 4645,
      "ĠQue": 4646,
      "Ġreality": 4647,
      "ĠUnder": 4648,
      "Ġsmart": 4649,
      "Over": 4650,
      "file": 4651,
      "gn": 4652,
      "Ġglass": 4653,
      "ĠUnion": 4654,
      "ita": 4655,
      "Ġattend": 4656,
      "^{\\": 4657,
      "Ġdepend": 4658,
      "Ġjobs": 4659,
      "rix": 4660,
      "ĠMex": 4661,
      "Ġentry": 4662,
      "Ġappreci": 4663,
      "ĠProject": 4664,
      "cell": 4665,
      "ÑĦ": 4666,
      "ady": 4667,
      "Ġsleep": 4668,
      "Ġmaster": 4669,
      "ĠWhy": 4670,
      "lis": 4671,
      "ĠTuesday": 4672,
      "ĠGr": 4673,
      "Ġspend": 4674,
      "fficient": 4675,
      "Ġmiles": 4676,
      "Ġrat": 4677,
      "azon": 4678,
      "ĠAv": 4679,
      "ĠParty": 4680,
      "ented": 4681,
      "eline": 4682,
      "Ġkept": 4683,
      "Ġrule": 4684,
      "Ġcorrespond": 4685,
      "Ġsteps": 4686,
      "Ġdrink": 4687,
      "ĠThursday": 4688,
      "ivery": 4689,
      "Ġcounter": 4690,
      "ky": 4691,
      "Ġpartner": 4692,
      "Ġregarding": 4693,
      "Ġdisapp": 4694,
      "Acc": 4695,
      "orrow": 4696,
      "ĠMo": 4697,
      "Ġprotection": 4698,
      "IA": 4699,
      "rative": 4700,
      "Ġfactors": 4701,
      "Ġagree": 4702,
      "ĠAward": 4703,
      "ĠLeague": 4704,
      "ĠFoundation": 4705,
      "Ġsources": 4706,
      "ĠDistrict": 4707,
      "ĠÐ±": 4708,
      "Ġsupply": 4709,
      "Ġclosed": 4710,
      "Ġgenerally": 4711,
      "yth": 4712,
      "Ġcontroll": 4713,
      "win": 4714,
      "ĠLand": 4715,
      "ĠCarol": 4716,
      "Ġfaith": 4717,
      "oma": 4718,
      "Ġvalid": 4719,
      "ĠRobert": 4720,
      "Ġupdate": 4721,
      "antic": 4722,
      "icago": 4723,
      "azine": 4724,
      "ua": 4725,
      "Ġsector": 4726,
      "Ed": 4727,
      "opping": 4728,
      "Ġshowed": 4729,
      "\";": 4730,
      "itness": 4731,
      "abase": 4732,
      "Ġloved": 4733,
      "Ġoccas": 4734,
      "Ġpreviously": 4735,
      "Ġdim": 4736,
      "Ġparties": 4737,
      "Ġrecords": 4738,
      "Ġappropriate": 4739,
      "Ġdefined": 4740,
      "];": 4741,
      "empl": 4742,
      "ĠAut": 4743,
      "Ġwindow": 4744,
      "under": 4745,
      "Ġprofession": 4746,
      "Ġprices": 4747,
      "Ġpaint": 4748,
      "inger": 4749,
      "Ġadopt": 4750,
      "acing": 4751,
      "ĠFree": 4752,
      "Ġaudience": 4753,
      "ĠMad": 4754,
      "Ġpages": 4755,
      "mail": 4756,
      "Ġwat": 4757,
      "Ġarchitect": 4758,
      "Ġbecomes": 4759,
      "ĠBig": 4760,
      "uy": 4761,
      "anta": 4762,
      "Ġfootball": 4763,
      "Ġoffering": 4764,
      "Ref": 4765,
      "Ġstrength": 4766,
      "ront": 4767,
      "ilon": 4768,
      "Ġign": 4769,
      "inct": 4770,
      "ĠSecret": 4771,
      "Ġtruly": 4772,
      "Or": 4773,
      "Ð½Ð°": 4774,
      "Ġbrain": 4775,
      "ĠRussia": 4776,
      "active": 4777,
      "Ġsolid": 4778,
      "osis": 4779,
      "Ġopened": 4780,
      "ĠOpen": 4781,
      "ĠProfess": 4782,
      "Ġdevices": 4783,
      "OP": 4784,
      "Ġtrend": 4785,
      "ario": 4786,
      "Ġdaughter": 4787,
      "Ġrent": 4788,
      "Ġtheory": 4789,
      "Ġearth": 4790,
      "Ġcompar": 4791,
      "Ġforms": 4792,
      "Ġpros": 4793,
      "Ġcalls": 4794,
      "pack": 4795,
      "Ġcontains": 4796,
      "Ġlaunch": 4797,
      "Ġmeant": 4798,
      "ĠRock": 4799,
      "irgin": 4800,
      "Su": 4801,
      "Ġfunding": 4802,
      "Ġguide": 4803,
      "Ġproperties": 4804,
      "Ġreplace": 4805,
      "ĠEr": 4806,
      "Ġrap": 4807,
      "unte": 4808,
      "ĠUp": 4809,
      "ĠWeb": 4810,
      "Ġpresence": 4811,
      "ĠEconom": 4812,
      "ĠMany": 4813,
      "aid": 4814,
      "entially": 4815,
      "Ġrob": 4816,
      "Ġpush": 4817,
      "ĠData": 4818,
      "Here": 4819,
      "gency": 4820,
      "Ġexpress": 4821,
      "ĠPlease": 4822,
      "ĠHot": 4823,
      "Ġspl": 4824,
      "----------------": 4825,
      "Ġessential": 4826,
      "Ġstatic": 4827,
      "Ġassum": 4828,
      "levision": 4829,
      "Ġprefer": 4830,
      "alls": 4831,
      "eting": 4832,
      "ĠWednesday": 4833,
      "uclear": 4834,
      "Ġlearned": 4835,
      "Ġdamage": 4836,
      "Add": 4837,
      "uit": 4838,
      "Ġslight": 4839,
      "Ġtask": 4840,
      "cher": 4841,
      "Ġdanger": 4842,
      "pan": 4843,
      "Ġviews": 4844,
      "orthern": 4845,
      "Why": 4846,
      "Ġvictim": 4847,
      "Ġtrial": 4848,
      "Go": 4849,
      "Ġdefinitely": 4850,
      "lict": 4851,
      "Ġpredict": 4852,
      "BS": 4853,
      "OW": 4854,
      "Ġgun": 4855,
      "Ġadvert": 4856,
      "Ġcold": 4857,
      "Ġdespite": 4858,
      "ĠDiv": 4859,
      "Pre": 4860,
      "ĠTop": 4861,
      "ĠIns": 4862,
      "Ġthank": 4863,
      "ded": 4864,
      "State": 4865,
      "Ġselected": 4866,
      "clusion": 4867,
      "Ġresist": 4868,
      "size": 4869,
      "look": 4870,
      "asure": 4871,
      "Ġofficials": 4872,
      "Ġleadership": 4873,
      "emic": 4874,
      "Ġadvice": 4875,
      "ĠEarth": 4876,
      "Ġbiggest": 4877,
      "ĠÑĥ": 4878,
      "Ġanc": 4879,
      "ĠIsland": 4880,
      "asy": 4881,
      "Ġrequires": 4882,
      "ĠSum": 4883,
      "Ġseeing": 4884,
      "ĠAfrican": 4885,
      "Ġcontinues": 4886,
      "Ġflu": 4887,
      "Ġmajority": 4888,
      "Ġuseful": 4889,
      "Ġorg": 4890,
      "Ġfiles": 4891,
      "Ġseemed": 4892,
      "BA": 4893,
      "Ġing": 4894,
      "ĠHill": 4895,
      "Comp": 4896,
      "Ġhusband": 4897,
      "abilities": 4898,
      "Ġlaun": 4899,
      "Ġguid": 4900,
      "from": 4901,
      "ĠTimes": 4902,
      "ĠMicro": 4903,
      "Ġcash": 4904,
      "ĠScott": 4905,
      "IF": 4906,
      "ĠÃ©": 4907,
      "ĠForm": 4908,
      "Ġcapacity": 4909,
      "Ġproposed": 4910,
      "apers": 4911,
      "Ġ**": 4912,
      "fit": 4913,
      "Ġrank": 4914,
      "Ġcommand": 4915,
      "estic": 4916,
      "Ġcaused": 4917,
      "Ġjourney": 4918,
      "itors": 4919,
      "ĠTwitter": 4920,
      "Ġdistribution": 4921,
      "Ġstandards": 4922,
      "Ġscale": 4923,
      "Ġheavy": 4924,
      "ala": 4925,
      "Ġreference": 4926,
      "Ġsongs": 4927,
      "ĠJul": 4928,
      "Ġaren": 4929,
      "ĠMer": 4930,
      "yd": 4931,
      "ipp": 4932,
      "Ġbottom": 4933,
      "Object": 4934,
      "Ġrelevant": 4935,
      "ĠJud": 4936,
      "Ġdeveloping": 4937,
      "ĠCentral": 4938,
      "iner": 4939,
      "Ġraised": 4940,
      "ĠWil": 4941,
      "Ġgar": 4942,
      "Ġbreat": 4943,
      "Ġentertain": 4944,
      "Ġclearly": 4945,
      "Ġvacc": 4946,
      "ĠDet": 4947,
      "Ġfamous": 4948,
      "Ġstorage": 4949,
      "inding": 4950,
      "Ġactions": 4951,
      "essage": 4952,
      "Ġhelping": 4953,
      "sm": 4954,
      "PA": 4955,
      "Ġfunds": 4956,
      "ĊĠĠĠĠĠĠĠĠĠĠĠĠĠĠĠĠĠĠĠĠĠĠĠ": 4957,
      "Ġobtain": 4958,
      "Ġreached": 4959,
      "array": 4960,
      "SE": 4961,
      "Ġkilled": 4962,
      "eless": 4963,
      "Ġindic": 4964,
      "gment": 4965,
      "Ġrare": 4966,
      "Ġoutput": 4967,
      "zen": 4968,
      "Ġreturned": 4969,
      "These": 4970,
      "Ġbehavior": 4971,
      "Ġ{\\": 4972,
      "Ġartists": 4973,
      "owl": 4974,
      "ĠFrank": 4975,
      "Ġphoto": 4976,
      "atre": 4977,
      "atically": 4978,
      "Par": 4979,
      "Ġcatch": 4980,
      "bour": 4981,
      "Ġnorth": 4982,
      "ias": 4983,
      "ĠList": 4984,
      "riage": 4985,
      "Ġconference": 4986,
      "Ġprote": 4987,
      "ĠIran": 4988,
      "Ġfant": 4989,
      "etry": 4990,
      "Ġeat": 4991,
      "osure": 4992,
      "ĠRad": 4993,
      "Ġappears": 4994,
      "Ġmist": 4995,
      "Ġadjust": 4996,
      "Ġsustain": 4997,
      "Ġotherwise": 4998,
      "requ": 4999,
      "Ġforces": 5000,
      "Ð½Ð¾": 5001,
      "perty": 5002,
      "Ġweekend": 5003,
      "Ġonto": 5004,
      "Ġbra": 5005,
      "Let": 5006,
      "Ġpoll": 5007,
      "Ġstress": 5008,
      "Ġwouldn": 5009,
      "Ġhomes": 5010,
      "Ġexperiences": 5011,
      "hand": 5012,
      "ĠTur": 5013,
      "ania": 5014,
      "['": 5015,
      "mathbf": 5016,
      "Ġconstruct": 5017,
      "Ġphotos": 5018,
      "More": 5019,
      "Ġarray": 5020,
      "Ġwid": 5021,
      "Ġcolumn": 5022,
      "Ġperformed": 5023,
      "enses": 5024,
      "ĠSecurity": 5025,
      "ĠAcadem": 5026,
      "ĠMedia": 5027,
      "uled": 5028,
      "Ġesc": 5029,
      "Ġjoined": 5030,
      "which": 5031,
      "Ġafford": 5032,
      "ĠNov": 5033,
      "Ġfan": 5034,
      "Ġwhom": 5035,
      "CE": 5036,
      "Ã§": 5037,
      "Ġarm": 5038,
      "ĠWomen": 5039,
      "orter": 5040,
      "ups": 5041,
      "Ġhealthy": 5042,
      "orney": 5043,
      "abled": 5044,
      "cious": 5045,
      "Ġnut": 5046,
      "Ġmulti": 5047,
      "road": 5048,
      "Ġhotel": 5049,
      "pret": 5050,
      "Ġmentioned": 5051,
      "ĠThomas": 5052,
      "Ã¥": 5053,
      "Ġsenior": 5054,
      "reek": 5055,
      "anging": 5056,
      "ĠPeter": 5057,
      "Ġenvironmental": 5058,
      "Ġexperienced": 5059,
      "Ġfunctions": 5060,
      "ĠLos": 5061,
      "ĠInternet": 5062,
      "Ġtesting": 5063,
      "Ġdry": 5064,
      "oving": 5065,
      "Ġdetermine": 5066,
      "ĠTor": 5067,
      "Ġcrim": 5068,
      "Ġconcent": 5069,
      "writ": 5070,
      "));": 5071,
      "Ġdistance": 5072,
      "clusive": 5073,
      "========": 5074,
      "ĠCommunity": 5075,
      "Ġda": 5076,
      "Ġsea": 5077,
      "Ġolder": 5078,
      "Ġfinding": 5079,
      "aming": 5080,
      "Ġmental": 5081,
      "Ġdriving": 5082,
      "Ġthanks": 5083,
      "ĠEngine": 5084,
      "Ġfollows": 5085,
      "ĠRussian": 5086,
      "Ġwonderful": 5087,
      "TS": 5088,
      "ĠHam": 5089,
      "Ġholid": 5090,
      "ĠAny": 5091,
      "Ġposted": 5092,
      "igation": 5093,
      "nect": 5094,
      "ĠDesign": 5095,
      ".[": 5096,
      "OD": 5097,
      "Ġhab": 5098,
      "xy": 5099,
      "Ġgeneration": 5100,
      "Ġmeasures": 5101,
      "Ġdrop": 5102,
      "Ġtemperature": 5103,
      "Ġadapt": 5104,
      "ffee": 5105,
      "Ġvs": 5106,
      "Ġtend": 5107,
      "oken": 5108,
      "Ð»Ð°": 5109,
      "Ġfol": 5110,
      "Ġtransform": 5111,
      "iced": 5112,
      "Ġcompetition": 5113,
      "roud": 5114,
      "Ġpolicies": 5115,
      "Ġlaws": 5116,
      "MP": 5117,
      "Ġcultural": 5118,
      "Ġrestrict": 5119,
      "Er": 5120,
      "Ġsouth": 5121,
      "ĠMass": 5122,
      "Ġadministration": 5123,
      "ĠWestern": 5124,
      "Ð½Ñĭ": 5125,
      "ĠLat": 5126,
      "Of": 5127,
      "ÐµÑĤ": 5128,
      "Ġincred": 5129,
      "going": 5130,
      "Ġcreative": 5131,
      "Can": 5132,
      "Ġmanager": 5133,
      "Ġselection": 5134,
      "ĠIr": 5135,
      "Set": 5136,
      "illa": 5137,
      ",'": 5138,
      "pected": 5139,
      "align": 5140,
      "Ġindex": 5141,
      "ĠMont": 5142,
      "Ġcore": 5143,
      "icit": 5144,
      "ih": 5145,
      "burg": 5146,
      "Ġinfluence": 5147,
      "Ġitem": 5148,
      "Ġnom": 5149,
      "Ġextremely": 5150,
      "Ġcovered": 5151,
      "Ġplaced": 5152,
      "Ġarrest": 5153,
      "Ġbrief": 5154,
      "function": 5155,
      "ĠElect": 5156,
      "ĠSil": 5157,
      "ĠCD": 5158,
      "Ġcities": 5159,
      "Ġappeared": 5160,
      "Ġseparate": 5161,
      "Ġruns": 5162,
      "orpor": 5163,
      "dule": 5164,
      "Ġradio": 5165,
      "Ġoperation": 5166,
      "ixt": 5167,
      "ĠBrown": 5168,
      "Ġpm": 5169,
      "Ġrow": 5170,
      "Ġsomew": 5171,
      "Ġresidents": 5172,
      "mat": 5173,
      "racy": 5174,
      "ĠChicago": 5175,
      "ns": 5176,
      "ĠHuman": 5177,
      "Ġoccup": 5178,
      "ĠOh": 5179,
      "Ġweather": 5180,
      "Ġutil": 5181,
      "Ġeasier": 5182,
      "Ġknows": 5183,
      "ĠAND": 5184,
      "uries": 5185,
      "Ġfinished": 5186,
      "night": 5187,
      "Ġinstr": 5188,
      "iency": 5189,
      "ĠTre": 5190,
      "unately": 5191,
      "FL": 5192,
      "eration": 5193,
      "Ġwriter": 5194,
      "oses": 5195,
      "ĠJesus": 5196,
      "ĠKore": 5197,
      "po": 5198,
      "Ġthousands": 5199,
      "Ġvision": 5200,
      "othing": 5201,
      "ĠFund": 5202,
      "ĠGrand": 5203,
      "Ġsession": 5204,
      "Ġinternet": 5205,
      "osen": 5206,
      "Exception": 5207,
      "ĠAlthough": 5208,
      "ĠOffic": 5209,
      "ses": 5210,
      "Ð»Ð¸": 5211,
      "Ġnav": 5212,
      "gu": 5213,
      "adian": 5214,
      "alled": 5215,
      "ogue": 5216,
      "Ġinstruct": 5217,
      "().": 5218,
      "ĠĠĠĠĠĠ": 5219,
      "phone": 5220,
      "abin": 5221,
      "rum": 5222,
      "tra": 5223,
      "Ġbecoming": 5224,
      "Ġsam": 5225,
      "Ġrich": 5226,
      "ĠTheir": 5227,
      "Key": 5228,
      "Ġprison": 5229,
      "ĠRichard": 5230,
      "const": 5231,
      "azz": 5232,
      "Ġscore": 5233,
      "Ġcommunication": 5234,
      "Ġfell": 5235,
      "Time": 5236,
      "Ġrise": 5237,
      "ĠVer": 5238,
      "ĠÂ»": 5239,
      "Ġviolence": 5240,
      "Ġsets": 5241,
      "CL": 5242,
      "Ġpieces": 5243,
      "yer": 5244,
      "Ġsigned": 5245,
      "Ġerr": 5246,
      "Ġcrow": 5247,
      "Ġfilms": 5248,
      "Ð²Ð°": 5249,
      "ĠVis": 5250,
      "ribute": 5251,
      "oration": 5252,
      "Ġtechnical": 5253,
      "Ġserver": 5254,
      "level": 5255,
      "Ġended": 5256,
      "Ð¾Ð¹": 5257,
      "PR": 5258,
      "hi": 5259,
      "va": 5260,
      "ĠMel": 5261,
      "Form": 5262,
      "ĠMount": 5263,
      "ĠLead": 5264,
      "Ġbath": 5265,
      "anda": 5266,
      "cles": 5267,
      "hab": 5268,
      "Ġwww": 5269,
      "lies": 5270,
      "ĠBecause": 5271,
      "Ġtit": 5272,
      "Ġstreet": 5273,
      "elligence": 5274,
      "pat": 5275,
      "alle": 5276,
      "ĠGlobal": 5277,
      "Ġadvantage": 5278,
      "olars": 5279,
      "press": 5280,
      "ĠRev": 5281,
      "Ġshowing": 5282,
      "ĠJohnson": 5283,
      "nel": 5284,
      "ĠEU": 5285,
      "ĠJo": 5286,
      "igration": 5287,
      "Ġproceed": 5288,
      "ĠPower": 5289,
      "Ġ/>": 5290,
      "ĠLove": 5291,
      "gor": 5292,
      "ani": 5293,
      "wo": 5294,
      "Ġpractices": 5295,
      "Ġleaving": 5296,
      "Ġreligious": 5297,
      "Ġhappens": 5298,
      "Ġbaby": 5299,
      "Ġfocused": 5300,
      "Ġwhatever": 5301,
      "OC": 5302,
      "SA": 5303,
      "inem": 5304,
      "Ġmonitor": 5305,
      "Ġdiagn": 5306,
      "Ġapplied": 5307,
      "Ġpassion": 5308,
      "ipped": 5309,
      "':": 5310,
      "Ġsupported": 5311,
      "Ġlinks": 5312,
      "ĠJose": 5313,
      "ĠÂ«": 5314,
      "Ġbattle": 5315,
      "Text": 5316,
      "Ġfemale": 5317,
      "Ġfailed": 5318,
      "Ġvisual": 5319,
      "tered": 5320,
      "Ġowner": 5321,
      "ĠCEO": 5322,
      "Ġagency": 5323,
      "Ġlock": 5324,
      "ĠEnd": 5325,
      "ÐºÐ°": 5326,
      "ĠLike": 5327,
      "ĠInformation": 5328,
      "can": 5329,
      "Ġfacilities": 5330,
      "Ġexplore": 5331,
      "Ġidentify": 5332,
      "Ġoperating": 5333,
      "how": 5334,
      "Ġclasses": 5335,
      "Ġfra": 5336,
      "Ġcitizens": 5337,
      "Ġcombination": 5338,
      "ĠWood": 5339,
      "Ġterror": 5340,
      "ĠLee": 5341,
      "friend": 5342,
      "nergy": 5343,
      "Ð¾Ð³Ð¾": 5344,
      "Ġfields": 5345,
      "ĠHen": 5346,
      "ora": 5347,
      "Ġshape": 5348,
      "Ġinternal": 5349,
      "reme": 5350,
      "Ġchair": 5351,
      "Ġburn": 5352,
      "Ġsitu": 5353,
      "ĠID": 5354,
      "ensity": 5355,
      "rite": 5356,
      "Ġcircum": 5357,
      "ĠReport": 5358,
      "Ġremove": 5359,
      "ĠIT": 5360,
      "ĠBet": 5361,
      "ĠShow": 5362,
      "Ġprepar": 5363,
      "Ġevening": 5364,
      "ĠIsl": 5365,
      "^{-": 5366,
      "ĠTechnology": 5367,
      "ĠSom": 5368,
      "inder": 5369,
      "emporary": 5370,
      "Ġminor": 5371,
      "Ġdelivery": 5372,
      "Rep": 5373,
      "ĠPet": 5374,
      "Ġdiscussion": 5375,
      "Ġprepared": 5376,
      "Ġdepartment": 5377,
      "Ġsmaller": 5378,
      "Ġconnected": 5379,
      "Ġphil": 5380,
      "ĠTwo": 5381,
      "ĠLu": 5382,
      "Â»": 5383,
      "host": 5384,
      "Ġmut": 5385,
      "iat": 5386,
      "umer": 5387,
      "Ġbatter": 5388,
      "ĠEach": 5389,
      "Ġcloud": 5390,
      "ĠFig": 5391,
      "Americ": 5392,
      "ĠWater": 5393,
      "Home": 5394,
      "ĠArts": 5395,
      "Ġanimals": 5396,
      "Ġresearc": 5397,
      "yan": 5398,
      "life": 5399,
      "ĠFamily": 5400,
      "oves": 5401,
      "Ġeventually": 5402,
      "Am": 5403,
      "ĠLong": 5404,
      "ĠInvest": 5405,
      "Ġtree": 5406,
      "Rec": 5407,
      "allery": 5408,
      "rastructure": 5409,
      "table": 5410,
      "crib": 5411,
      "Des": 5412,
      "ĠVict": 5413,
      "idden": 5414,
      "ĠBi": 5415,
      "Ġship": 5416,
      "Ġdistrict": 5417,
      "MA": 5418,
      "olar": 5419,
      "ĠSeries": 5420,
      "icians": 5421,
      "ĠVirgin": 5422,
      "igen": 5423,
      "Ġnor": 5424,
      "Ġtraffic": 5425,
      "Ġappeal": 5426,
      "ĠAmericans": 5427,
      ".;": 5428,
      "Ġteaching": 5429,
      "Ġhaven": 5430,
      "tes": 5431,
      "Ġguarant": 5432,
      "ĠAccording": 5433,
      "Ġbalance": 5434,
      "Ġpair": 5435,
      "Ġmanufacture": 5436,
      "otic": 5437,
      "Ġadvance": 5438,
      "iliar": 5439,
      "Ġdetermined": 5440,
      "Some": 5441,
      "Ġinstit": 5442,
      "while": 5443,
      "Ġadding": 5444,
      "Ġthr": 5445,
      "oat": 5446,
      "rier": 5447,
      "iture": 5448,
      "ione": 5449,
      "Ġdecisions": 5450,
      "ĠPolicy": 5451,
      "Ġdecades": 5452,
      "ideos": 5453,
      "ML": 5454,
      "Ġcars": 5455,
      "ician": 5456,
      "Ġnoted": 5457,
      "Ġwed": 5458,
      "Ġmanaged": 5459,
      "Ġmetal": 5460,
      "ĠMedical": 5461,
      "ĠTest": 5462,
      "Ġchanging": 5463,
      "']": 5464,
      "Ġphase": 5465,
      "Ġfreedom": 5466,
      "ĠAL": 5467,
      "arsh": 5468,
      "Ġweap": 5469,
      "Ġshop": 5470,
      "odies": 5471,
      "rt": 5472,
      "Ġpool": 5473,
      "Ġbul": 5474,
      "ĠLake": 5475,
      "ĠDen": 5476,
      "Ġexpression": 5477,
      "Ġgift": 5478,
      "ĠAtl": 5479,
      "cean": 5480,
      "Ġequal": 5481,
      "Ġdoubt": 5482,
      "udd": 5483,
      "isco": 5484,
      "ĠArab": 5485,
      "ĠParis": 5486,
      "ĠWho": 5487,
      "Ġkitchen": 5488,
      "Ġintroduced": 5489,
      "Ġborder": 5490,
      "Ġprocesses": 5491,
      "Ġarrang": 5492,
      "ĠAngeles": 5493,
      "bed": 5494,
      "beta": 5495,
      "Ġsusp": 5496,
      "ĠSpe": 5497,
      "Ġ(\"": 5498,
      "âĢ¦âĢ¦": 5499,
      "Ġchief": 5500,
      "Ġnumerous": 5501,
      "Ġtro": 5502,
      "Ġmort": 5503,
      "igan": 5504,
      "utely": 5505,
      "Ġsymbol": 5506,
      "link": 5507,
      "user": 5508,
      "Ġunivers": 5509,
      "Ġhyd": 5510,
      "Ġamb": 5511,
      "Ġdefault": 5512,
      "ĠWeek": 5513,
      "Ġretail": 5514,
      "des": 5515,
      "sq": 5516,
      "rehens": 5517,
      "Ġhandle": 5518,
      "Ġdedicated": 5519,
      "ĠCr": 5520,
      "ĠTO": 5521,
      "lem": 5522,
      "ĠRef": 5523,
      "ĠDuring": 5524,
      "index": 5525,
      "ĠFre": 5526,
      "icious": 5527,
      "Ġconsequ": 5528,
      "Ste": 5529,
      "ĠTim": 5530,
      "ĠDown": 5531,
      "ĠNor": 5532,
      "ui": 5533,
      "Ġevalu": 5534,
      "Ġunits": 5535,
      "Ġedge": 5536,
      "oz": 5537,
      "Ġefficient": 5538,
      "Ġdocuments": 5539,
      "Ġbeat": 5540,
      "Ġdecre": 5541,
      "aine": 5542,
      "Inst": 5543,
      "ĠMa": 5544,
      "Ġsexual": 5545,
      "Ġvac": 5546,
      "Ġwaiting": 5547,
      "Ġnegative": 5548,
      "Ġopinion": 5549,
      "dis": 5550,
      "Ġyouth": 5551,
      "Ġfif": 5552,
      "ensions": 5553,
      "Ġreli": 5554,
      "Ġfab": 5555,
      "Ġlived": 5556,
      "Ġsecure": 5557,
      "osoph": 5558,
      "ilde": 5559,
      "atures": 5560,
      "alian": 5561,
      "Ġconcerns": 5562,
      "ĠPri": 5563,
      "LC": 5564,
      "ipping": 5565,
      "inations": 5566,
      "Ġimportance": 5567,
      "Ġfurn": 5568,
      "ĠBur": 5569,
      "Ġpictures": 5570,
      "uthors": 5571,
      "¿½": 5572,
      "Ġfashion": 5573,
      "Ġspring": 5574,
      "ĠLouis": 5575,
      "ola": 5576,
      "Ġissued": 5577,
      "ĠCentre": 5578,
      "rc": 5579,
      "oted": 5580,
      "run": 5581,
      "Ġdriver": 5582,
      "ï¿½": 5583,
      "Ġsharing": 5584,
      "Ġstated": 5585,
      "ĠOper": 5586,
      "Sub": 5587,
      "Ġmarried": 5588,
      "aren": 5589,
      "Ġcamera": 5590,
      "Ġlabor": 5591,
      "Ġice": 5592,
      "cript": 5593,
      "poses": 5594,
      "Ġinterests": 5595,
      "Ġalternative": 5596,
      "related": 5597,
      "Ġexchange": 5598,
      "ĠCath": 5599,
      "ĠÑĤ": 5600,
      "ĠTeam": 5601,
      "Ġidentified": 5602,
      "ĠApple": 5603,
      "Ġpray": 5604,
      "ĊĠĠĠĠĠĠĠĠĠĠĠĠĠĠĠĠĠĠĠĠĠĠĠĠĠĠĠĠĠĠĠĠ": 5605,
      "TH": 5606,
      "Ġconsid": 5607,
      "Ġeditor": 5608,
      "Ġguess": 5609,
      "Class": 5610,
      "lay": 5611,
      "Ġfat": 5612,
      "ingly": 5613,
      "Ġexecutive": 5614,
      "Ġcrisis": 5615,
      "Ġvon": 5616,
      "Ġoptim": 5617,
      "Reg": 5618,
      "Ġfactor": 5619,
      "Ġmanage": 5620,
      "Ġmostly": 5621,
      "First": 5622,
      "Ġarticles": 5623,
      "rics": 5624,
      "ĠChief": 5625,
      "ĠSpecial": 5626,
      "Ġ!=": 5627,
      "Ġ;": 5628,
      "Ġestate": 5629,
      "uilding": 5630,
      "jo": 5631,
      "ĠCup": 5632,
      "cription": 5633,
      "java": 5634,
      "Ġ(\\": 5635,
      "Requ": 5636,
      "Ġvolume": 5637,
      "Ġbrow": 5638,
      "Ġresource": 5639,
      "post": 5640,
      "Ġlots": 5641,
      "Ġproud": 5642,
      "Ġfinish": 5643,
      "Ġfish": 5644,
      "Ġformat": 5645,
      "Ġgain": 5646,
      "ucky": 5647,
      "Ġclinical": 5648,
      "Ġrand": 5649,
      "ĠBack": 5650,
      "free": 5651,
      "ĠPub": 5652,
      "Ġkeeping": 5653,
      "ĠFood": 5654,
      "Ġcommitted": 5655,
      "Ġinvestigation": 5656,
      "Ð¸ÑĤ": 5657,
      ")}": 5658,
      "Ġcoord": 5659,
      "that": 5660,
      "olit": 5661,
      "Ġvolunte": 5662,
      "Ġsurvey": 5663,
      "ĠHead": 5664,
      "Ġgirls": 5665,
      "rivate": 5666,
      "File": 5667,
      "Ġwatching": 5668,
      "fra": 5669,
      "ĠPC": 5670,
      "js": 5671,
      "EW": 5672,
      "Ġmarkets": 5673,
      "ears": 5674,
      "ĠWhe": 5675,
      "ĠJoe": 5676,
      "DF": 5677,
      "Ġbutton": 5678,
      "Ġmit": 5679,
      "+\\": 5680,
      "cos": 5681,
      "Ġresol": 5682,
      "Ġobtained": 5683,
      "Ġpayment": 5684,
      "ban": 5685,
      "gers": 5686,
      "Ġleads": 5687,
      "................": 5688,
      "phas": 5689,
      "ĠWindows": 5690,
      "trans": 5691,
      "Ġplays": 5692,
      "Ġris": 5693,
      "gamma": 5694,
      "Ġpal": 5695,
      "ĠÐ°": 5696,
      "Ġuniversity": 5697,
      "Ġce": 5698,
      "Ġholds": 5699,
      "ĠTown": 5700,
      "Ġplants": 5701,
      "Ġclassic": 5702,
      "Ġsounds": 5703,
      "ĠDisc": 5704,
      "SC": 5705,
      "ĠSand": 5706,
      "Ġdress": 5707,
      "Ġguy": 5708,
      "Ġtelevision": 5709,
      "Ġofficer": 5710,
      "However": 5711,
      "figure": 5712,
      "Ġcoach": 5713,
      "Ġlaunched": 5714,
      "Ġlabel": 5715,
      "ĠFort": 5716,
      "Ġfuel": 5717,
      "Ġjoint": 5718,
      "nu": 5719,
      "Ð¾Ñģ": 5720,
      "??": 5721,
      "ĠFederal": 5722,
      "Ġhearing": 5723,
      "Ġraise": 5724,
      "urban": 5725,
      "Ġban": 5726,
      "ĠMaster": 5727,
      "sl": 5728,
      "Ġmotor": 5729,
      "ĠValley": 5730,
      "Ġandroid": 5731,
      "Ġrelationships": 5732,
      "Ġpp": 5733,
      "Test": 5734,
      "*}": 5735,
      "irmed": 5736,
      "inst": 5737,
      "coh": 5738,
      "Ġdefend": 5739,
      "ĠMartin": 5740,
      "onom": 5741,
      ")(": 5742,
      "ĠDi": 5743,
      "ĠOnce": 5744,
      "Ġpor": 5745,
      "Ġadvent": 5746,
      "Ġstarts": 5747,
      "stream": 5748,
      "Ġshares": 5749,
      "Ġdoctor": 5750,
      "ĠCast": 5751,
      "Ġideal": 5752,
      "content": 5753,
      "gorith": 5754,
      "Ġbird": 5755,
      "iler": 5756,
      "ĠIts": 5757,
      "ĠNav": 5758,
      "ĠOld": 5759,
      "ĠAff": 5760,
      "Ġinjury": 5761,
      "Ġcoverage": 5762,
      "Ġheight": 5763,
      "Ġcentre": 5764,
      "Ġtag": 5765,
      "._": 5766,
      "ĠDou": 5767,
      "ĠOrgan": 5768,
      "Ġkid": 5769,
      "inating": 5770,
      "Ġexercise": 5771,
      "ĠJim": 5772,
      "fol": 5773,
      "Ġadvanced": 5774,
      "ĠSet": 5775,
      "]{": 5776,
      "sigma": 5777,
      "Ġlisten": 5778,
      "Ġflex": 5779,
      "\"><": 5780,
      "agon": 5781,
      "ĠDig": 5782,
      "Ġnotes": 5783,
      "Ġjump": 5784,
      "ansion": 5785,
      "ĠEnter": 5786,
      "Ġrapid": 5787,
      "EST": 5788,
      "ĠCA": 5789,
      "Ġsport": 5790,
      "idential": 5791,
      "stein": 5792,
      "Che": 5793,
      "ĠCam": 5794,
      "rho": 5795,
      "ĠIll": 5796,
      "Ġentre": 5797,
      "Ġwelcome": 5798,
      "Ġpod": 5799,
      "osit": 5800,
      "Ġpun": 5801,
      "Ġcarried": 5802,
      "igr": 5803,
      "ĠRights": 5804,
      "ker": 5805,
      "Ġlisted": 5806,
      "ship": 5807,
      "Ġacademic": 5808,
      "Ġhistorical": 5809,
      "ĠAmazon": 5810,
      "ĠDie": 5811,
      "asks": 5812,
      "Ġmanner": 5813,
      "^\\": 5814,
      "Ġrid": 5815,
      "Ġrecorded": 5816,
      "Ġstars": 5817,
      "ĠToday": 5818,
      "Comm": 5819,
      "Ġdefense": 5820,
      "dered": 5821,
      "script": 5822,
      "Ġsweet": 5823,
      "Ġshut": 5824,
      "Ġherself": 5825,
      "Ġregistered": 5826,
      "Ġvehicles": 5827,
      "ĠObama": 5828,
      "Ġneighbor": 5829,
      "Car": 5830,
      "John": 5831,
      "Mar": 5832,
      "Ġmissing": 5833,
      "Ġassert": 5834,
      "Ġvent": 5835,
      "Ġunless": 5836,
      "rence": 5837,
      "Ġrandom": 5838,
      "ĠLear": 5839,
      "erry": 5840,
      "Ġguys": 5841,
      "Ġcrime": 5842,
      "bur": 5843,
      "Next": 5844,
      "ĠAsia": 5845,
      "Ġfacility": 5846,
      "Ġdiscover": 5847,
      "EX": 5848,
      "Ġannounce": 5849,
      "aked": 5850,
      "ĠKh": 5851,
      "sembly": 5852,
      "ĠGen": 5853,
      "ilit": 5854,
      "theta": 5855,
      "Ġpurposes": 5856,
      "ultural": 5857,
      "Ġmedium": 5858,
      "Ġreviews": 5859,
      "Ġidentity": 5860,
      "ĠMot": 5861,
      "ÐºÐ¸": 5862,
      "Ġfailure": 5863,
      "Ġteacher": 5864,
      "ushed": 5865,
      "fe": 5866,
      "ĠGal": 5867,
      "Ġcop": 5868,
      "Ġwinter": 5869,
      "ais": 5870,
      "Ġran": 5871,
      "Ġ($": 5872,
      "Ġexperts": 5873,
      "Ġbrings": 5874,
      "Ġapproximately": 5875,
      "cm": 5876,
      "Ġcoast": 5877,
      "ocument": 5878,
      "Ġforced": 5879,
      "iples": 5880,
      "Ġcalling": 5881,
      "Ġscript": 5882,
      "iÃ³n": 5883,
      "May": 5884,
      "ĠAdminist": 5885,
      "scape": 5886,
      "aks": 5887,
      "ĠEp": 5888,
      "Ġepisode": 5889,
      "ĠMur": 5890,
      "amin": 5891,
      "ĠAbout": 5892,
      "ĠWall": 5893,
      "Ġexplain": 5894,
      "Ġapart": 5895,
      "Ġspeech": 5896,
      "Ġtransition": 5897,
      "ulty": 5898,
      "Def": 5899,
      "oria": 5900,
      "ÐµÐ½Ð¸": 5901,
      "Ġresponsibility": 5902,
      "Ġmaximum": 5903,
      "Ġtele": 5904,
      "Ġbond": 5905,
      "ĠDu": 5906,
      "ĠCy": 5907,
      "Ġscientific": 5908,
      "ĠNY": 5909,
      "ĠThanks": 5910,
      "ĠUse": 5911,
      "Ġapparent": 5912,
      "Ġlas": 5913,
      "Ġhero": 5914,
      "okes": 5915,
      "ĠFire": 5916,
      "Ġjustice": 5917,
      "oti": 5918,
      "ĠRoman": 5919,
      "ĠLab": 5920,
      "ĠFestival": 5921,
      "Ġsto": 5922,
      "Ġton": 5923,
      "rical": 5924,
      "pty": 5925,
      "Ġbelong": 5926,
      "ĠIre": 5927,
      "ĠPan": 5928,
      "Ġwinning": 5929,
      "iana": 5930,
      "quad": 5931,
      "Ġliber": 5932,
      "Ġspending": 5933,
      "Ġexcited": 5934,
      "Ġsched": 5935,
      "ba": 5936,
      "ĠAustralian": 5937,
      "Posted": 5938,
      "Ġillustr": 5939,
      "Ġnuclear": 5940,
      "hent": 5941,
      "Ġlose": 5942,
      "Ġcraft": 5943,
      "Ġwitness": 5944,
      "lang": 5945,
      "Ġbright": 5946,
      "Ġconven": 5947,
      "ECT": 5948,
      "Ġcoffee": 5949,
      "Ġment": 5950,
      "Ġnine": 5951,
      "Ġcritic": 5952,
      "ĠMexico": 5953,
      "ĠStat": 5954,
      "ĠDev": 5955,
      "Ġpanel": 5956,
      "andemic": 5957,
      "Ġwilling": 5958,
      "Ġflat": 5959,
      "Ġstick": 5960,
      "comm": 5961,
      "Ġna": 5962,
      "ja": 5963,
      "Ġinterpret": 5964,
      "ĠView": 5965,
      "Ġsurg": 5966,
      "Ġcircumst": 5967,
      "Ġsand": 5968,
      "Ġnone": 5969,
      "Ġdebt": 5970,
      "ĠCorpor": 5971,
      "kins": 5972,
      "ĠStand": 5973,
      "Ġagreed": 5974,
      "ĠTH": 5975,
      "Ġsmooth": 5976,
      "position": 5977,
      "Ġcomfortable": 5978,
      "Ġrevealed": 5979,
      "thlet": 5980,
      "othes": 5981,
      "Ġminimum": 5982,
      "ket": 5983,
      "Ġauthority": 5984,
      "Last": 5985,
      "date": 5986,
      "Ġlit": 5987,
      "bi": 5988,
      "ĠSaf": 5989,
      "fty": 5990,
      "EE": 5991,
      "Ġmovies": 5992,
      "Ġweak": 5993,
      "Ġcriminal": 5994,
      "rison": 5995,
      "Ġemp": 5996,
      "AA": 5997,
      "rip": 5998,
      "Us": 5999,
      "Ġlibrary": 6000,
      "ctors": 6001,
      "oston": 6002,
      "ĠJustice": 6003,
      "Ġsoul": 6004,
      "liament": 6005,
      "ĠRoyal": 6006,
      "ĠLast": 6007,
      "apping": 6008,
      "Ġfill": 6009,
      "Ġthoughts": 6010,
      "Ġau": 6011,
      "ĠMiddle": 6012,
      "achel": 6013,
      "ĠProt": 6014,
      "ĠCharles": 6015,
      "parent": 6016,
      "oles": 6017,
      "Ġhousing": 6018,
      "Ġmode": 6019,
      "ĠCanadian": 6020,
      "prene": 6021,
      "mosp": 6022,
      "ĠSection": 6023,
      "icial": 6024,
      "style": 6025,
      "Ġpackage": 6026,
      "Fig": 6027,
      "obe": 6028,
      "eller": 6029,
      "Ġfle": 6030,
      "ĠTour": 6031,
      "rees": 6032,
      "ossible": 6033,
      "ĠSecond": 6034,
      "Ġleaves": 6035,
      "Ġ&&": 6036,
      "Ġprotected": 6037,
      "Ġalle": 6038,
      "ĠÐ¡": 6039,
      "According": 6040,
      "Ġ///": 6041,
      "Ġdial": 6042,
      "Just": 6043,
      "delta": 6044,
      "ĠGame": 6045,
      "rete": 6046,
      "Ġcombined": 6047,
      "Ġfourth": 6048,
      "uster": 6049,
      "Ġreduced": 6050,
      "Ġfixed": 6051,
      "Ġdepart": 6052,
      "Ñī": 6053,
      "bo": 6054,
      "iments": 6055,
      "ĠLibrary": 6056,
      "ĠEnergy": 6057,
      "Ġslightly": 6058,
      "Ġhonest": 6059,
      "leq": 6060,
      "Ġcorner": 6061,
      "nam": 6062,
      "isters": 6063,
      "Ġsignificantly": 6064,
      "âĢĭ": 6065,
      "ĠProv": 6066,
      "Ġflight": 6067,
      "Ġdiet": 6068,
      "Ġmarg": 6069,
      "pace": 6070,
      "etime": 6071,
      "Ġinstitutions": 6072,
      "Ġsquare": 6073,
      "Ġtests": 6074,
      "Ġforget": 6075,
      "());": 6076,
      "Ġallowing": 6077,
      "ĠHospital": 6078,
      "ĠJapanese": 6079,
      "####": 6080,
      "ĠGeorg": 6081,
      "Ġpolitics": 6082,
      "Ġwear": 6083,
      "ĠJewish": 6084,
      "ĠBob": 6085,
      "ocket": 6086,
      "person": 6087,
      "Dr": 6088,
      "ĠSecretary": 6089,
      "Ġsample": 6090,
      "../../": 6091,
      "ingu": 6092,
      "lymp": 6093,
      "Ġcomponents": 6094,
      "Ġasking": 6095,
      "anish": 6096,
      "cho": 6097,
      "Ġcorporate": 6098,
      "ĠIndust": 6099,
      "Ġrestaurant": 6100,
      "Ġta": 6101,
      "Ġchannel": 6102,
      "Te": 6103,
      "Ġputting": 6104,
      "Ġholding": 6105,
      "Ġofficers": 6106,
      "Ġfamiliar": 6107,
      "Ġintended": 6108,
      "ĠAuthor": 6109,
      "Ġbuildings": 6110,
      "Ġdecide": 6111,
      "TR": 6112,
      "Ġimpress": 6113,
      "Pr": 6114,
      "ĠColor": 6115,
      "Ġprocessing": 6116,
      "race": 6117,
      "Ġdetect": 6118,
      "draw": 6119,
      "lt": 6120,
      "ĠCard": 6121,
      "ĠWay": 6122,
      "fortunately": 6123,
      "ĠNetwork": 6124,
      "udi": 6125,
      "Ġking": 6126,
      "ĠBlue": 6127,
      "mes": 6128,
      "GB": 6129,
      "enced": 6130,
      "Ġplenty": 6131,
      "Ġdiscovered": 6132,
      "otes": 6133,
      "ĠRE": 6134,
      "ĠLog": 6135,
      "acific": 6136,
      "pload": 6137,
      "Ġrain": 6138,
      "Ġfort": 6139,
      "ĠIP": 6140,
      "Ġfilled": 6141,
      "Ġremoved": 6142,
      "west": 6143,
      "asp": 6144,
      "Ġwaste": 6145,
      "Ġteachers": 6146,
      "Ġanimal": 6147,
      "unning": 6148,
      "');": 6149,
      "Ġrom": 6150,
      "Ġmotion": 6151,
      "ega": 6152,
      "Ġshift": 6153,
      "Ġconclud": 6154,
      "arrow": 6155,
      "Ġserving": 6156,
      "Ġrelax": 6157,
      "Ġinfrastructure": 6158,
      "long": 6159,
      "Ġsty": 6160,
      "Ġconflict": 6161,
      "akistan": 6162,
      "Ġobserved": 6163,
      "Ġtechniques": 6164,
      "Ġadvoc": 6165,
      "ĠAcademy": 6166,
      "elled": 6167,
      "Â®": 6168,
      "dden": 6169,
      "Sec": 6170,
      "Ġapproved": 6171,
      "Ġassistance": 6172,
      "ATION": 6173,
      "Ġminute": 6174,
      "fast": 6175,
      "ĠPolit": 6176,
      "group": 6177,
      "elines": 6178,
      "ĠPo": 6179,
      "Ġtheme": 6180,
      "Ġcategory": 6181,
      "Ġswitch": 6182,
      "Ġfeels": 6183,
      "comes": 6184,
      "ishes": 6185,
      "door": 6186,
      "Ġcup": 6187,
      "++": 6188,
      "ĠPenn": 6189,
      "Ġrot": 6190,
      "ĠBoy": 6191,
      "Ġvillage": 6192,
      "Ġexplained": 6193,
      "Ġdisp": 6194,
      "Ġframe": 6195,
      "}(\\": 6196,
      "Please": 6197,
      "color": 6198,
      "Ġwine": 6199,
      "Ġreturns": 6200,
      "Ġexamples": 6201,
      "Ġsupposed": 6202,
      "Ġaccur": 6203,
      "ograp": 6204,
      "Ġdatabase": 6205,
      "Ġtow": 6206,
      "ÐµÐ¼": 6207,
      "Ġemergency": 6208,
      "Ġspecifically": 6209,
      "Ġquiet": 6210,
      "Ġisland": 6211,
      "arp": 6212,
      "ĠSup": 6213,
      "Ġcrowd": 6214,
      "ĠReal": 6215,
      "ommod": 6216,
      "partial": 6217,
      "ancer": 6218,
      "Ġfold": 6219,
      "Ġsupporting": 6220,
      "ĠIreland": 6221,
      "Ġremaining": 6222,
      "Ġwire": 6223,
      "Ġuna": 6224,
      "}{\\": 6225,
      "sim": 6226,
      "map": 6227,
      "Ġchemical": 6228,
      "tenance": 6229,
      "Ġrespectively": 6230,
      "Co": 6231,
      "Ġcere": 6232,
      "ĠPolice": 6233,
      "ĠAdv": 6234,
      "Ġcomponent": 6235,
      "Ġconcerned": 6236,
      "Ġconversation": 6237,
      "ĠId": 6238,
      "ivered": 6239,
      "hop": 6240,
      "rome": 6241,
      "Ġsyn": 6242,
      "stra": 6243,
      "Ġincorpor": 6244,
      "ĠMen": 6245,
      "Ġlocations": 6246,
      "Inter": 6247,
      "Ġexternal": 6248,
      "Ġrecip": 6249,
      "Ġcarbon": 6250,
      "Ġflav": 6251,
      "Ġmale": 6252,
      "olec": 6253,
      "Ġcards": 6254,
      "iration": 6255,
      "fs": 6256,
      "itutional": 6257,
      "Att": 6258,
      "astern": 6259,
      "Ġaspects": 6260,
      "Ġexec": 6261,
      "ĠSar": 6262,
      "Ġaccompl": 6263,
      "Ġhyp": 6264,
      "Ġegg": 6265,
      "Ã©e": 6266,
      "TO": 6267,
      "ĠChair": 6268,
      "Ġargument": 6269,
      "Ġperspective": 6270,
      "ogen": 6271,
      "Ġcommission": 6272,
      "''": 6273,
      "Ġmassive": 6274,
      "Ġsudden": 6275,
      "Ġconducted": 6276,
      "Ġbringing": 6277,
      "prise": 6278,
      "Ġaffected": 6279,
      "essions": 6280,
      "Ġdestroy": 6281,
      "Ġtells": 6282,
      "ride": 6283,
      "outs": 6284,
      "Ġmatters": 6285,
      "cknow": 6286,
      "lines": 6287,
      "Ġemphas": 6288,
      "ĠScot": 6289,
      "Ġexciting": 6290,
      "Ġreform": 6291,
      "Per": 6292,
      "ployment": 6293,
      "PC": 6294,
      "ĠBeach": 6295,
      "Â°": 6296,
      "ĠOnline": 6297,
      "ĠBas": 6298,
      "arts": 6299,
      "Ass": 6300,
      "Ġdivid": 6301,
      "Ġaccident": 6302,
      "irty": 6303,
      "antly": 6304,
      "kin": 6305,
      "Ġvideos": 6306,
      "times": 6307,
      "Ġcomprehens": 6308,
      "Ġhighlight": 6309,
      "otal": 6310,
      "ĠMike": 6311,
      "ĠCarolina": 6312,
      "Ġregul": 6313,
      "ĠVirginia": 6314,
      "ls": 6315,
      "Ġdecor": 6316,
      "Ð°ÑĢ": 6317,
      "Ġobjects": 6318,
      "Ġuns": 6319,
      "Ġinteg": 6320,
      "ĠJon": 6321,
      "$-": 6322,
      "Ġgreatest": 6323,
      "Since": 6324,
      "itage": 6325,
      "Ġmusical": 6326,
      "Ġsnow": 6327,
      "Ġvirtual": 6328,
      "case": 6329,
      "ERS": 6330,
      "Ġobserv": 6331,
      "illy": 6332,
      "Ġshel": 6333,
      "Ġedition": 6334,
      "Item": 6335,
      "Ð°ÑĤ": 6336,
      "ye": 6337,
      "Ġmo": 6338,
      "Ġsides": 6339,
      "ĠConference": 6340,
      "Yes": 6341,
      "Ġschedule": 6342,
      "ĠWal": 6343,
      "ĠYoung": 6344,
      "Ġwalking": 6345,
      "iveness": 6346,
      "Ġgarden": 6347,
      "ĠBoth": 6348,
      "Ġreaders": 6349,
      "Ġtechnologies": 6350,
      "aven": 6351,
      "ĠArmy": 6352,
      "page": 6353,
      "oster": 6354,
      "FF": 6355,
      "Ġsan": 6356,
      "Ġarrived": 6357,
      "ĠLo": 6358,
      "Ġven": 6359,
      "Ġmechanism": 6360,
      "Ġsympt": 6361,
      "UM": 6362,
      "ras": 6363,
      "ĠÎ": 6364,
      "Ġkill": 6365,
      "Ġforg": 6366,
      "Ġenem": 6367,
      "Ġparticipants": 6368,
      "Ġtopic": 6369,
      "Ġsubstant": 6370,
      "Well": 6371,
      "Ġvisitors": 6372,
      "Ġabsolutely": 6373,
      "ĠJeff": 6374,
      "Ġunf": 6375,
      "Ġregional": 6376,
      "uzz": 6377,
      "Ġtypically": 6378,
      "Ġroute": 6379,
      "Ġera": 6380,
      "Ġtrad": 6381,
      "ĠJones": 6382,
      "Ġwealth": 6383,
      "Every": 6384,
      "Ġdescription": 6385,
      "zy": 6386,
      "Ġforest": 6387,
      "Ġstanding": 6388,
      "Ġformed": 6389,
      "cohol": 6390,
      "ĠMax": 6391,
      "ĠMedicine": 6392,
      "ifications": 6393,
      "Ġtrees": 6394,
      "Ġmotiv": 6395,
      "Trans": 6396,
      "Ġindustrial": 6397,
      "See": 6398,
      "Ġcooper": 6399,
      "Ġbeauty": 6400,
      "Out": 6401,
      "Image": 6402,
      "ĠHor": 6403,
      "uable": 6404,
      "Ġdetailed": 6405,
      "Ġelim": 6406,
      "ads": 6407,
      "Ġbag": 6408,
      "Ġfavour": 6409,
      "ographic": 6410,
      "apes": 6411,
      "Ġupdated": 6412,
      "lication": 6413,
      "izer": 6414,
      "Ġrooms": 6415,
      "Ġsac": 6416,
      "Ġresearchers": 6417,
      "noon": 6418,
      "ĠLim": 6419,
      "iverse": 6420,
      "nic": 6421,
      "Service": 6422,
      "Ġdraft": 6423,
      "Ġcharges": 6424,
      "Ġoblig": 6425,
      "Ġdance": 6426,
      "Ġcommittee": 6427,
      "ĠChris": 6428,
      "Ġbegins": 6429,
      "ador": 6430,
      "ĠProfessor": 6431,
      "Ġseeking": 6432,
      "Ġcreation": 6433,
      "ati": 6434,
      "ĠMicrosoft": 6435,
      "Ġdrugs": 6436,
      "Ġtreated": 6437,
      "ĠHaw": 6438,
      "raq": 6439,
      "ĠRo": 6440,
      "Ġsignal": 6441,
      "Ġpromote": 6442,
      "Ġproof": 6443,
      "$$": 6444,
      "Ġauthorities": 6445,
      "Ġenjoyed": 6446,
      "ĠChampions": 6447,
      "ATE": 6448,
      "Error": 6449,
      "Me": 6450,
      "Ġkick": 6451,
      "ĠStep": 6452,
      "ĠExper": 6453,
      "Ġprofessionals": 6454,
      "Ġprove": 6455,
      "real": 6456,
      "lywood": 6457,
      "Ġreject": 6458,
      "Ġholiday": 6459,
      "pet": 6460,
      "king": 6461,
      "Ġcauses": 6462,
      "Ġmarriage": 6463,
      "ipal": 6464,
      "Ġcaught": 6465,
      "Ġauthors": 6466,
      "Ġrenew": 6467,
      "ĠEll": 6468,
      "Mr": 6469,
      "Ġbes": 6470,
      "Ġagent": 6471,
      "orders": 6472,
      "iano": 6473,
      "forcement": 6474,
      "FA": 6475,
      "eper": 6476,
      "ĠStudies": 6477,
      "inte": 6478,
      "Ġexpensive": 6479,
      "rich": 6480,
      "CD": 6481,
      "elly": 6482,
      "omin": 6483,
      "RI": 6484,
      "hetic": 6485,
      "ĠMake": 6486,
      "ĠTrust": 6487,
      "greg": 6488,
      "ĠCH": 6489,
      "Context": 6490,
      "ĠBo": 6491,
      "Ġgather": 6492,
      "rame": 6493,
      "eqref": 6494,
      "ĠCall": 6495,
      "Ġrelatively": 6496,
      "ĠUk": 6497,
      "rency": 6498,
      "ĠEqu": 6499,
      "Ġchain": 6500,
      "Ġindeed": 6501,
      "Ġpil": 6502,
      "Ð¾ÑĤ": 6503,
      "Ġroof": 6504,
      "NS": 6505,
      "erate": 6506,
      "Ġthick": 6507,
      "rate": 6508,
      "Ġlos": 6509,
      "Ð¾Ðº": 6510,
      "Ġcommitment": 6511,
      "Ã±": 6512,
      "ĠProduct": 6513,
      "Part": 6514,
      "ĠEnvironment": 6515,
      "Ġtun": 6516,
      "Ġprofile": 6517,
      "ĠWrit": 6518,
      "ĠGames": 6519,
      "Ġatmosp": 6520,
      "Ġresolution": 6521,
      "Ġseat": 6522,
      "Request": 6523,
      "lie": 6524,
      "Ġdiscussed": 6525,
      "Ġdefinition": 6526,
      "Then": 6527,
      "ĠLook": 6528,
      "Ġattacks": 6529,
      "Ġspons": 6530,
      "arks": 6531,
      "water": 6532,
      "ĠMuslim": 6533,
      "ĠSports": 6534,
      "Ġsigns": 6535,
      "Fl": 6536,
      "irms": 6537,
      "Your": 6538,
      "Ġdomestic": 6539,
      "Ġselling": 6540,
      "oral": 6541,
      "Ġinspired": 6542,
      "ĠFilm": 6543,
      "Ġaid": 6544,
      "ĠNig": 6545,
      "Ġhundreds": 6546,
      "Ġadults": 6547,
      "Ġpositions": 6548,
      "aped": 6549,
      "Ser": 6550,
      "Ñĺ": 6551,
      "ĠGar": 6552,
      "Ġaccommod": 6553,
      "aylor": 6554,
      "url": 6555,
      "Ġpandemic": 6556,
      "HS": 6557,
      "ĠBritain": 6558,
      "ifts": 6559,
      "ĠItaly": 6560,
      "eah": 6561,
      "rec": 6562,
      "ĠAndrew": 6563,
      "Ġterrit": 6564,
      "Ġrevenue": 6565,
      "Ġemployee": 6566,
      "Ġentirely": 6567,
      "Ġloan": 6568,
      "Ġinn": 6569,
      "Ġcircumstances": 6570,
      "ÑĨÐ¸": 6571,
      "ĠBoston": 6572,
      "ounter": 6573,
      "Ġguitar": 6574,
      "ĠYes": 6575,
      "ÐµÐ´": 6576,
      "Ġlayer": 6577,
      "Ġpossibly": 6578,
      "Ġaccounts": 6579,
      "Ġsister": 6580,
      "ĠAT": 6581,
      "Ġcandidate": 6582,
      "Ġstudio": 6583,
      "Ġicon": 6584,
      "Ġsevere": 6585,
      "Ġancient": 6586,
      "osite": 6587,
      "Ġadvis": 6588,
      "Pe": 6589,
      "DS": 6590,
      "ĠÐ·Ð°": 6591,
      "iden": 6592,
      "Ġsubsequ": 6593,
      "Ġdollars": 6594,
      "ĠPerson": 6595,
      "Ġinvolve": 6596,
      "ĠOlymp": 6597,
      "Are": 6598,
      "law": 6599,
      "anges": 6600,
      "anche": 6601,
      "Ġbought": 6602,
      "stract": 6603,
      "Ġgrew": 6604,
      "Ġmere": 6605,
      "true": 6606,
      "uts": 6607,
      "Ġourselves": 6608,
      "osc": 6609,
      "Ġworry": 6610,
      "resents": 6611,
      "Ġappearance": 6612,
      "Ġconfirmed": 6613,
      "Ġdelivered": 6614,
      "(),": 6615,
      "mond": 6616,
      "};": 6617,
      "ĠCheck": 6618,
      "Ġsimpl": 6619,
      "Ġstopped": 6620,
      "space": 6621,
      "ĠChildren": 6622,
      "Act": 6623,
      "iform": 6624,
      "ĠOnly": 6625,
      "ĠSenate": 6626,
      "Ġpure": 6627,
      "ĠFinancial": 6628,
      "Ġveget": 6629,
      "ĠMS": 6630,
      "TER": 6631,
      "lock": 6632,
      "Ġgender": 6633,
      "Ġagencies": 6634,
      "Gener": 6635,
      "ĊĊĠĠĠĠĠĠĠĠĠĠĠ": 6636,
      "tau": 6637,
      "ĠItalian": 6638,
      "gypt": 6639,
      "rated": 6640,
      "Ġtom": 6641,
      "Ġdistinct": 6642,
      "infty": 6643,
      "Ġcontrast": 6644,
      "Ġlin": 6645,
      "Ġshock": 6646,
      "Ġbroken": 6647,
      "Ġinvestors": 6648,
      "Art": 6649,
      "ESS": 6650,
      "Ġimproved": 6651,
      "Ġconfidence": 6652,
      "kes": 6653,
      "ĠPhys": 6654,
      "ali": 6655,
      "Ġworse": 6656,
      "merce": 6657,
      "Ġchosen": 6658,
      "Ġimplementation": 6659,
      "grad": 6660,
      "Ġparameters": 6661,
      "Ġposts": 6662,
      "pass": 6663,
      "About": 6664,
      "Ġcrew": 6665,
      "war": 6666,
      "RC": 6667,
      "Ġmouth": 6668,
      "ĠFrancisco": 6669,
      "onic": 6670,
      "Ġassets": 6671,
      "Ġconvert": 6672,
      "Ġperman": 6673,
      "Ġwedding": 6674,
      "Ġguests": 6675,
      "abeth": 6676,
      "issions": 6677,
      "Ġ$(": 6678,
      "Ġturns": 6679,
      "Ġsitting": 6680,
      "Ġemotional": 6681,
      "ĠAwards": 6682,
      "ĠKen": 6683,
      "flow": 6684,
      "Äį": 6685,
      "Ġrail": 6686,
      "Ġwave": 6687,
      "Ġrecognized": 6688,
      "Ġdifferences": 6689,
      "ĠDaniel": 6690,
      "uce": 6691,
      "rog": 6692,
      "HT": 6693,
      "Ġfiled": 6694,
      "Ġfigures": 6695,
      "Ġstatements": 6696,
      "Ġupper": 6697,
      "esome": 6698,
      "Ġemployment": 6699,
      "Ġje": 6700,
      "foot": 6701,
      "you": 6702,
      "Ġingred": 6703,
      "Ġcharged": 6704,
      "ĠHa": 6705,
      "Ġsolar": 6706,
      "cons": 6707,
      "Ġconcert": 6708,
      "BI": 6709,
      "American": 6710,
      "ĠWilliams": 6711,
      "ĠPakistan": 6712,
      "orry": 6713,
      "Ġpref": 6714,
      "ums": 6715,
      "Ġends": 6716,
      "ĠWhere": 6717,
      "Ġiron": 6718,
      "Ġhousehold": 6719,
      "El": 6720,
      "rance": 6721,
      "Ġexecut": 6722,
      "PE": 6723,
      "Ġentered": 6724,
      "Ġdecade": 6725,
      "Ġseconds": 6726,
      "Ġdiss": 6727,
      "Ġspeaking": 6728,
      "Ġride": 6729,
      "riz": 6730,
      "ĠColl": 6731,
      "Path": 6732,
      "ĠCatholic": 6733,
      "secut": 6734,
      "Ġvul": 6735,
      "Ġbehavi": 6736,
      "ello": 6737,
      "uls": 6738,
      "Ġmuseum": 6739,
      "ĠJun": 6740,
      "ĠCode": 6741,
      "Ġveter": 6742,
      "Ġacknow": 6743,
      "Ġriver": 6744,
      "ĠÐĴ": 6745,
      "lishing": 6746,
      "Ġdiscl": 6747,
      "Ġbelieved": 6748,
      "Ġeducational": 6749,
      "Ġremind": 6750,
      "ircraft": 6751,
      "Ġaccepted": 6752,
      "uing": 6753,
      "Ġoccasion": 6754,
      "inity": 6755,
      "Ġalgorith": 6756,
      "ĠExecutive": 6757,
      "ĠSpace": 6758,
      "Ġisol": 6759,
      "ĠSpring": 6760,
      "urd": 6761,
      "Ġodd": 6762,
      "orters": 6763,
      "Big": 6764,
      "Ġarms": 6765,
      "Ġliqu": 6766,
      "ĠEnt": 6767,
      "Ġphen": 6768,
      "star": 6769,
      "ĠName": 6770,
      "';": 6771,
      "arian": 6772,
      "actory": 6773,
      "Ġyield": 6774,
      "Ġnegoti": 6775,
      "Ġcandidates": 6776,
      "ĠExt": 6777,
      "Ġsufficient": 6778,
      "Ġconsumer": 6779,
      "Ġassessment": 6780,
      "Ġju": 6781,
      "Ġextended": 6782,
      "Ġkm": 6783,
      "Ġdelay": 6784,
      "Ġfee": 6785,
      "legal": 6786,
      "Ġstret": 6787,
      "omega": 6788,
      "iti": 6789,
      "vec": 6790,
      "Ġproperly": 6791,
      "\\,": 6792,
      "ĠHenry": 6793,
      "ĠON": 6794,
      "}$.": 6795,
      "abet": 6796,
      "Field": 6797,
      "Ġcloser": 6798,
      "Ġstrategies": 6799,
      "ĠHon": 6800,
      "ĠAD": 6801,
      "ĠColumb": 6802,
      "athan": 6803,
      "ĠDivision": 6804,
      "ĠKar": 6805,
      "Ġcart": 6806,
      "Ġplanned": 6807,
      "rooms": 6808,
      "La": 6809,
      "Ġdefe": 6810,
      "LA": 6811,
      "php": 6812,
      "Ġgoods": 6813,
      "Oh": 6814,
      "ĠAS": 6815,
      "Ġdesire": 6816,
      "ĠLight": 6817,
      "Ġenable": 6818,
      "hr": 6819,
      "Ġwidth": 6820,
      "Ġnative": 6821,
      "ĠVan": 6822,
      "Ġstores": 6823,
      "Ġprotein": 6824,
      "title": 6825,
      "Ġrecon": 6826,
      "ĠJoseph": 6827,
      "ĠSupreme": 6828,
      "Ġtight": 6829,
      "othe": 6830,
      "Ġequival": 6831,
      "rieved": 6832,
      "UP": 6833,
      "Ġneighborhood": 6834,
      "Ġtempl": 6835,
      "iest": 6836,
      "Ġrepresents": 6837,
      "Ġcounty": 6838,
      "Ġ/**": 6839,
      "iro": 6840,
      "Ġliterature": 6841,
      "Ġnewsp": 6842,
      "ĠLiber": 6843,
      "ÃŃa": 6844,
      "gener": 6845,
      "ĠSpanish": 6846,
      "orem": 6847,
      "Ġfighting": 6848,
      "Ġtwice": 6849,
      "ĠWat": 6850,
      "Ġreceiving": 6851,
      "Ġpartnership": 6852,
      "Ġcro": 6853,
      "Ġsuggested": 6854,
      "Ġteach": 6855,
      "ĠMarket": 6856,
      "non": 6857,
      "Ent": 6858,
      "Ġprovider": 6859,
      "struct": 6860,
      "Ġdinner": 6861,
      "ez": 6862,
      "ĠIraq": 6863,
      "esterday": 6864,
      "System": 6865,
      "oding": 6866,
      "fil": 6867,
      "Ġring": 6868,
      "TA": 6869,
      "ĠEst": 6870,
      "Ġyes": 6871,
      "enth": 6872,
      "ailed": 6873,
      "ĠWalk": 6874,
      "reens": 6875,
      "Ġdescribe": 6876,
      "ĠOk": 6877,
      "ether": 6878,
      "Ã£": 6879,
      "length": 6880,
      "Ġstone": 6881,
      "Ġcourses": 6882,
      "Any": 6883,
      "ponse": 6884,
      "ĠThus": 6885,
      "rat": 6886,
      "Ġregions": 6887,
      "Ġpursu": 6888,
      "|\\": 6889,
      "bal": 6890,
      "ighter": 6891,
      "Ġengineering": 6892,
      "Ġrub": 6893,
      "Ġafternoon": 6894,
      "Ġestimated": 6895,
      "ĠWild": 6896,
      "ylv": 6897,
      "ÂŃ": 6898,
      "Event": 6899,
      "Ġpractical": 6900,
      "ĠÐŁ": 6901,
      "ĠNight": 6902,
      "Ġconsidering": 6903,
      "Ð¼Ð¸": 6904,
      "ĠCountry": 6905,
      "sem": 6906,
      "sole": 6907,
      "omet": 6908,
      "ersion": 6909,
      "Ġtelling": 6910,
      "ãģ": 6911,
      "Ġast": 6912,
      "Ge": 6913,
      "Ġsteel": 6914,
      "Ġrecommended": 6915,
      "Ġfellow": 6916,
      "Ġfees": 6917,
      "Ġinfo": 6918,
      "Ġzero": 6919,
      "Ġalleged": 6920,
      "Ġscholars": 6921,
      "node": 6922,
      "ĠPage": 6923,
      "Ġspoke": 6924,
      "Ġrecovery": 6925,
      "car": 6926,
      "ĠGovern": 6927,
      "Ġdomain": 6928,
      "Ġdiverse": 6929,
      "ĠCivil": 6930,
      "ibilities": 6931,
      "uma": 6932,
      "Ġreferred": 6933,
      "child": 6934,
      "Ġexists": 6935,
      "lient": 6936,
      "Ġdangerous": 6937,
      "obs": 6938,
      "ĠÑĩ": 6939,
      "asters": 6940,
      "Ġabuse": 6941,
      "alysis": 6942,
      "Ġwest": 6943,
      "Ġadult": 6944,
      "Ġmand": 6945,
      "Ġforth": 6946,
      "redit": 6947,
      "Ġspaces": 6948,
      "born": 6949,
      "ocracy": 6950,
      "unting": 6951,
      "Ġrelative": 6952,
      "Ġfriendly": 6953,
      "ĠForce": 6954,
      "Em": 6955,
      "Ġworldwide": 6956,
      "Ġfeatured": 6957,
      "Ġmoments": 6958,
      "adow": 6959,
      "Ġencourage": 6960,
      "vas": 6961,
      "osa": 6962,
      "Ġportion": 6963,
      "Ġtaste": 6964,
      "gage": 6965,
      "Ġhouses": 6966,
      "Ġalt": 6967,
      "Ġcream": 6968,
      "ĠPay": 6969,
      "Ġurban": 6970,
      "Ġrough": 6971,
      "Ġowned": 6972,
      "orough": 6973,
      "Ĥ¬": 6974,
      "ĠDC": 6975,
      "then": 6976,
      "Ġthread": 6977,
      "ĠFed": 6978,
      "Ġhappening": 6979,
      "opyright": 6980,
      "ĠTherefore": 6981,
      "Ġreporting": 6982,
      "Ġcomprehensive": 6983,
      "ĠFurther": 6984,
      "Ġelectronic": 6985,
      "Ġenhance": 6986,
      "erg": 6987,
      "ĠLive": 6988,
      "Ġshopping": 6989,
      "erves": 6990,
      "aron": 6991,
      "Ġprogramme": 6992,
      "Ġconsumers": 6993,
      "ĠBrad": 6994,
      "pa": 6995,
      "ĠMic": 6996,
      "esh": 6997,
      "eren": 6998,
      "Source": 6999,
      "Ġoriginally": 7000,
      "Ġrisks": 7001,
      "ĠLi": 7002,
      "Ġcycle": 7003,
      "Ġeffectively": 7004,
      "ĠThank": 7005,
      "unc": 7006,
      "ribe": 7007,
      "Ġcontemporary": 7008,
      "Ġsuit": 7009,
      "Ġmine": 7010,
      "Ġmaintenance": 7011,
      "Log": 7012,
      "Ġspiritual": 7013,
      "Ġmurder": 7014,
      "ĠSouthern": 7015,
      "Ġtherapy": 7016,
      "Ġhonor": 7017,
      "Ġjudge": 7018,
      "Ġok": 7019,
      "teen": 7020,
      "Ġtrig": 7021,
      "ERT": 7022,
      "ÑĢÑĥ": 7023,
      "Ġmenu": 7024,
      "ownt": 7025,
      "Ġvictory": 7026,
      "ĠHy": 7027,
      "abs": 7028,
      "}$,": 7029,
      "quare": 7030,
      "Ġremark": 7031,
      "Ġplot": 7032,
      "holders": 7033,
      "wan": 7034,
      "Ġongoing": 7035,
      "ĠZeal": 7036,
      "Top": 7037,
      "Ġexpressed": 7038,
      "razil": 7039,
      "Ġresulting": 7040,
      "Ġplanet": 7041,
      "ĠThrough": 7042,
      "Ġped": 7043,
      "Ġprepare": 7044,
      "ptions": 7045,
      "Ġconfirm": 7046,
      "ifest": 7047,
      "ython": 7048,
      "Ġdirected": 7049,
      "Ġsymptoms": 7050,
      "Ġpregn": 7051,
      "inson": 7052,
      "Ġextensive": 7053,
      "Ġintelligence": 7054,
      "='": 7055,
      "Ġsad": 7056,
      "Ġbon": 7057,
      "ĠAud": 7058,
      "ĠPop": 7059,
      "Ġnetworks": 7060,
      "version": 7061,
      "Ġorders": 7062,
      "Ġsuccessfully": 7063,
      "ĠTable": 7064,
      "Ġlicense": 7065,
      "Ġdebut": 7066,
      "ilipp": 7067,
      "ormal": 7068,
      "Ġune": 7069,
      "ĠBra": 7070,
      "ĠKingdom": 7071,
      "Ġsurprise": 7072,
      "Ġchapter": 7073,
      "ĠInstead": 7074,
      "Ġbuying": 7075,
      "ĠMichigan": 7076,
      "Ġlux": 7077,
      "Delta": 7078,
      "ao": 7079,
      "Ġstorm": 7080,
      "Ġfacts": 7081,
      "ante": 7082,
      "Ġtips": 7083,
      "Ġregulations": 7084,
      "Ġvast": 7085,
      "Å¡": 7086,
      "Ġfaster": 7087,
      "ruption": 7088,
      "Ġimagine": 7089,
      "Ġextract": 7090,
      "cdot": 7091,
      "max": 7092,
      "ĠJac": 7093,
      "Ġauto": 7094,
      "ĠFar": 7095,
      "inent": 7096,
      "Ġextent": 7097,
      "pdate": 7098,
      "Ġlegislation": 7099,
      "zer": 7100,
      "Ġplug": 7101,
      "Ġrealize": 7102,
      "umin": 7103,
      "Ġdebate": 7104,
      "Ġtough": 7105,
      "Ġremote": 7106,
      "Ġfly": 7107,
      "ela": 7108,
      "Ġassign": 7109,
      "inally": 7110,
      "Ġjoy": 7111,
      "Ġsurrounding": 7112,
      "Ġbeach": 7113,
      "Ġinnovative": 7114,
      "ÑģÑı": 7115,
      "Ġmal": 7116,
      "Ġtrouble": 7117,
      "Ġhealthcare": 7118,
      "ifier": 7119,
      "Ġincident": 7120,
      "Ġmillions": 7121,
      "gs": 7122,
      "Ġbusy": 7123,
      "Ġboost": 7124,
      "ĠHand": 7125,
      "Dis": 7126,
      "osophy": 7127,
      "vely": 7128,
      "Ġgenerated": 7129,
      "ĠWin": 7130,
      "izabeth": 7131,
      "Ġdepending": 7132,
      "Ġregister": 7133,
      "sen": 7134,
      "Info": 7135,
      "Ġinterface": 7136,
      "Ġscheme": 7137,
      "ĠPrem": 7138,
      "ellect": 7139,
      "ĠMid": 7140,
      "utch": 7141,
      "Ġhelpful": 7142,
      "lets": 7143,
      "Ġstands": 7144,
      "\").": 7145,
      "she": 7146,
      "ĠPass": 7147,
      "roph": 7148,
      "ĠMA": 7149,
      "TC": 7150,
      "Ġserves": 7151,
      "ĠCustom": 7152,
      "Ġcheap": 7153,
      "Ġupdates": 7154,
      "Ġimpossible": 7155,
      "Where": 7156,
      "ĠSign": 7157,
      "LO": 7158,
      "ĠDigital": 7159,
      "lected": 7160,
      "Ġusual": 7161,
      "Ġdepth": 7162,
      "ogy": 7163,
      "oir": 7164,
      "Ġremained": 7165,
      "Ġexception": 7166,
      "Ġguard": 7167,
      "ĠPacific": 7168,
      "Thanks": 7169,
      "Ġlie": 7170,
      "Ġfacing": 7171,
      "Ġsubmit": 7172,
      "ĠHave": 7173,
      "Ġcompens": 7174,
      "Ġphotograph": 7175,
      "epsilon": 7176,
      "ĠEgypt": 7177,
      "Ġtaught": 7178,
      "Ġinstrument": 7179,
      "Equ": 7180,
      "ĠInf": 7181,
      "Ġpersons": 7182,
      "Ġpour": 7183,
      "duction": 7184,
      "Gl": 7185,
      "ĠAgain": 7186,
      "Ġsugar": 7187,
      "ĠDar": 7188,
      "agues": 7189,
      "Ġmel": 7190,
      "Ġpossibility": 7191,
      "Ġintent": 7192,
      "Ã£o": 7193,
      "bury": 7194,
      "Ġconsistent": 7195,
      "Ġexpansion": 7196,
      "ashed": 7197,
      "ĠJackson": 7198,
      "Will": 7199,
      "iral": 7200,
      "Ð¸Ð½": 7201,
      "hus": 7202,
      "Ġarts": 7203,
      "FC": 7204,
      "ĠZealand": 7205,
      "iki": 7206,
      "Ġsuc": 7207,
      "ĊĠĠĠĠĠĠĠĠĠĠĠĠĠ": 7208,
      "Ps": 7209,
      "raine": 7210,
      "Rem": 7211,
      "ÑĹ": 7212,
      "never": 7213,
      "ĠPhot": 7214,
      "ĠDonald": 7215,
      "rition": 7216,
      "ĠCross": 7217,
      "Config": 7218,
      "Ġleague": 7219,
      "ĠPrime": 7220,
      "ima": 7221,
      "Ġinnovation": 7222,
      "Ġevolution": 7223,
      "ĠBrook": 7224,
      "ĠOl": 7225,
      "Ġearned": 7226,
      "Ġincreases": 7227,
      "ĠKenn": 7228,
      "Ġtotally": 7229,
      "cha": 7230,
      "ican": 7231,
      "Ġunable": 7232,
      "mann": 7233,
      "weight": 7234,
      "Ġswim": 7235,
      "Ġtalent": 7236,
      "unicip": 7237,
      "essed": 7238,
      "Ġsalt": 7239,
      "Ġparticipate": 7240,
      "Ġclaimed": 7241,
      "ĠFair": 7242,
      "ila": 7243,
      "erman": 7244,
      "ĠRam": 7245,
      "raphics": 7246,
      "ĠAccess": 7247,
      "Jan": 7248,
      "Ġcolors": 7249,
      "tw": 7250,
      "Ġhat": 7251,
      "Ġsupports": 7252,
      "Ã¼r": 7253,
      "Ġtopics": 7254,
      "Ġbattery": 7255,
      "Ġexperiment": 7256,
      "ĠRest": 7257,
      "Ġroles": 7258,
      "icken": 7259,
      "Another": 7260,
      "Gu": 7261,
      "Ġfasc": 7262,
      "ĠLtd": 7263,
      "ĠSupport": 7264,
      "ifies": 7265,
      "duate": 7266,
      "Ġvulner": 7267,
      "Ġinstalled": 7268,
      "Ġplastic": 7269,
      "BO": 7270,
      "Ġdegrees": 7271,
      "ĠEngineering": 7272,
      "________": 7273,
      "Table": 7274,
      "Ġteen": 7275,
      "ĠAR": 7276,
      "acter": 7277,
      "ĠÐļ": 7278,
      "Ġrepair": 7279,
      "exp": 7280,
      "Ġacid": 7281,
      "Ġnurs": 7282,
      "Ġtwenty": 7283,
      "Ġcouncil": 7284,
      "Ġaudio": 7285,
      "ĠÐ¿ÑĢ": 7286,
      "Ġsettings": 7287,
      "Ġstood": 7288,
      "ĠSciences": 7289,
      "Ġmixed": 7290,
      "Ġbodies": 7291,
      "Ġcollaboration": 7292,
      "Ġeating": 7293,
      "Ġfounded": 7294,
      "Ġgod": 7295,
      "onym": 7296,
      "ulous": 7297,
      "Ġreligion": 7298,
      "Ġgro": 7299,
      "inton": 7300,
      "Ġgrown": 7301,
      "Ġframework": 7302,
      "roller": 7303,
      "Ġcolle": 7304,
      "Ġworst": 7305,
      "Ġreasonable": 7306,
      "Ġprocedure": 7307,
      "Ġsuggests": 7308,
      "Ġbigger": 7309,
      "ync": 7310,
      "TV": 7311,
      "check": 7312,
      "ji": 7313,
      "ĠÂ·": 7314,
      "ALL": 7315,
      "Ġwinner": 7316,
      "ĠMcC": 7317,
      "Ġmeetings": 7318,
      "ilton": 7319,
      "Ġhall": 7320,
      "Count": 7321,
      "hire": 7322,
      "ĠOR": 7323,
      "ĠKim": 7324,
      "Ġmail": 7325,
      "ĠCoast": 7326,
      "Ġmanufacturing": 7327,
      "Book": 7328,
      "grade": 7329,
      "ints": 7330,
      "Ġcampus": 7331,
      "ĠPsych": 7332,
      "Ġboys": 7333,
      "ĠStory": 7334,
      "amental": 7335,
      "Ġshooting": 7336,
      "Ġentreprene": 7337,
      "Ġaccord": 7338,
      "Ġlatter": 7339,
      "Ġproviders": 7340,
      "ĠQueen": 7341,
      "ansas": 7342,
      "Ġtalks": 7343,
      "ĠGuide": 7344,
      "Ġsplit": 7345,
      "Ġroot": 7346,
      "Ġclosely": 7347,
      "Ġagric": 7348,
      "ĠSteve": 7349,
      "ĠThose": 7350,
      "ĠJr": 7351,
      "Ġfeedback": 7352,
      "lights": 7353,
      "Ġdesk": 7354,
      "Ġempty": 7355,
      "Ġmeat": 7356,
      "ĠCur": 7357,
      "``": 7358,
      "ĠTake": 7359,
      "utation": 7360,
      "endar": 7361,
      "Net": 7362,
      "Ġnode": 7363,
      "gent": 7364,
      "Fil": 7365,
      "Ġvert": 7366,
      "Ġcos": 7367,
      "ĠdÃ©": 7368,
      "ĠCreat": 7369,
      "ĠMov": 7370,
      "Ġcoal": 7371,
      "vi": 7372,
      "proof": 7373,
      "ĠControl": 7374,
      "ĠMain": 7375,
      "lean": 7376,
      "Ġunderst": 7377,
      "ĠRen": 7378,
      "CS": 7379,
      "bro": 7380,
      "\"></": 7381,
      "Ġ~": 7382,
      "Ġstructures": 7383,
      "Ġawareness": 7384,
      "Ġpoly": 7385,
      "Ġanywhere": 7386,
      "ĠSir": 7387,
      "iversary": 7388,
      "Ð¾Ð±": 7389,
      "Element": 7390,
      "aul": 7391,
      "Ġnic": 7392,
      "Ġ});": 7393,
      "Ġhistoric": 7394,
      "Ġelig": 7395,
      "Ġwindows": 7396,
      "Ġnob": 7397,
      "Ġadm": 7398,
      "ĠGirl": 7399,
      "Ãł": 7400,
      "ĠHotel": 7401,
      "Ġcolour": 7402,
      "ĠIII": 7403,
      "ĠRepublican": 7404,
      "Ġvary": 7405,
      "object": 7406,
      "Ġwarn": 7407,
      "umes": 7408,
      "onav": 7409,
      "Ġfrequently": 7410,
      "erest": 7411,
      "Ġpassing": 7412,
      "Ġacts": 7413,
      "Ġassume": 7414,
      "pecific": 7415,
      "Ġfulf": 7416,
      "Ġaircraft": 7417,
      "Ġadvertising": 7418,
      "Ġgenerate": 7419,
      "Ġcabin": 7420,
      "Ġcolon": 7421,
      "Ġduty": 7422,
      "Ġpaying": 7423,
      "Ġalcohol": 7424,
      "Ġmessages": 7425,
      "ĠSea": 7426,
      "count": 7427,
      "ĠKn": 7428,
      "input": 7429,
      "Ġfantastic": 7430,
      "Ġfacilit": 7431,
      "Ġlargely": 7432,
      "Ġattrib": 7433,
      "%)": 7434,
      "Ġcovers": 7435,
      "ĠSon": 7436,
      "Ġretire": 7437,
      "Ġboat": 7438,
      "apped": 7439,
      "Ġexistence": 7440,
      "Ġwalls": 7441,
      "ĠLittle": 7442,
      "Ġdefine": 7443,
      "ĠAnother": 7444,
      "ervative": 7445,
      "Mod": 7446,
      "Back": 7447,
      "asts": 7448,
      "ells": 7449,
      "ĠCost": 7450,
      "ĠWord": 7451,
      "ĠAndroid": 7452,
      "ollowing": 7453,
      "Ġachieved": 7454,
      "ĠRom": 7455,
      "ĠNote": 7456,
      "Ġsucceed": 7457,
      "ensus": 7458,
      "PM": 7459,
      "open": 7460,
      "Ġsight": 7461,
      "Ġjava": 7462,
      "Ġessay": 7463,
      "bra": 7464,
      "ĠStart": 7465,
      "Ġtrading": 7466,
      "Ġincreasingly": 7467,
      "IST": 7468,
      "Most": 7469,
      "ĠNOT": 7470,
      "cor": 7471,
      "Ġexpertise": 7472,
      "Sim": 7473,
      "Ġgraduate": 7474,
      "itled": 7475,
      "icity": 7476,
      "Ġwidely": 7477,
      "api": 7478,
      "profit": 7479,
      "Ġeast": 7480,
      "Ġstrategic": 7481,
      "Ġbanks": 7482,
      "Ġhorse": 7483,
      "vin": 7484,
      "Ġturning": 7485,
      "ĠKorea": 7486,
      "Ġawarded": 7487,
      "Ġprivacy": 7488,
      "start": 7489,
      "Ãº": 7490,
      "elle": 7491,
      "Phone": 7492,
      "enger": 7493,
      "Tra": 7494,
      "Ġfilter": 7495,
      "Ġletters": 7496,
      "Ġvaluable": 7497,
      "ghan": 7498,
      "oned": 7499,
      "Ne": 7500,
      "Ġultimately": 7501,
      "ounded": 7502,
      "oking": 7503,
      "Ġfurniture": 7504,
      "Ġtail": 7505,
      "Many": 7506,
      "ĠIrish": 7507,
      "ĠDub": 7508,
      "Ġflood": 7509,
      "Ġminister": 7510,
      "Ġkinds": 7511,
      "Ġvital": 7512,
      "Ġencourag": 7513,
      "Ġevol": 7514,
      "ĠWatch": 7515,
      "Ġefficiency": 7516,
      "lik": 7517,
      "ĠTaylor": 7518,
      "Ġsynt": 7519,
      "ĠFour": 7520,
      "uling": 7521,
      "ÑģÑĮ": 7522,
      "xi": 7523,
      "acts": 7524,
      "ĠMaybe": 7525,
      "ĠKnow": 7526,
      "Ġknowing": 7527,
      "Ġfruit": 7528,
      "ĠBefore": 7529,
      "summary": 7530,
      "eries": 7531,
      "nab": 7532,
      "Ġpatterns": 7533,
      "Ġcollected": 7534,
      "Ġrevolution": 7535,
      "Ġstreets": 7536,
      "Ġautomatically": 7537,
      "Bar": 7538,
      "Pub": 7539,
      "Ġparking": 7540,
      "Ġtested": 7541,
      "ĠRay": 7542,
      "itals": 7543,
      "Ġentertainment": 7544,
      "ĠFind": 7545,
      "Ġvo": 7546,
      "onto": 7547,
      "Ġtypical": 7548,
      "Ġchoices": 7549,
      "Ġrecording": 7550,
      "tilde": 7551,
      "ulating": 7552,
      "ĠPalest": 7553,
      "ĠMu": 7554,
      "olds": 7555,
      "ĠHit": 7556,
      "Ġprocedures": 7557,
      "Ġanx": 7558,
      "Ġhumans": 7559,
      "ĠCirc": 7560,
      "amber": 7561,
      "ĠAdministration": 7562,
      "Ġpowers": 7563,
      "Ġguest": 7564,
      "Ġneut": 7565,
      "ocolate": 7566,
      "Ġdoors": 7567,
      "ĠNon": 7568,
      "Ġmedicine": 7569,
      "Ġsurgery": 7570,
      "stone": 7571,
      "Ġreaction": 7572,
      "vy": 7573,
      "Ġcapable": 7574,
      "Ġsole": 7575,
      "void": 7576,
      "ĠPot": 7577,
      "ko": 7578,
      "Ġcompetitive": 7579,
      "usal": 7580,
      "Ġexcess": 7581,
      "Ġincredible": 7582,
      "Ġpharm": 7583,
      "Tube": 7584,
      "Ġmagazine": 7585,
      "Ġformal": 7586,
      "Manager": 7587,
      "Ġelected": 7588,
      "core": 7589,
      "Ġacting": 7590,
      "acks": 7591,
      "Ġattorney": 7592,
      "ÄĽ": 7593,
      "ĠMrs": 7594,
      "Color": 7595,
      "ĠBooks": 7596,
      "Ġweapons": 7597,
      "Ġbrown": 7598,
      "Â©": 7599,
      "Ġupcoming": 7600,
      "rible": 7601,
      "Ġbasket": 7602,
      "ĠStan": 7603,
      "Click": 7604,
      "ĠCas": 7605,
      "Ġoccurred": 7606,
      "Hand": 7607,
      "Ġscientists": 7608,
      "ĠSus": 7609,
      "Ġfinds": 7610,
      "ĠBrand": 7611,
      "iary": 7612,
      "Cons": 7613,
      "lib": 7614,
      "ĠGeorgia": 7615,
      "CR": 7616,
      "Ġtruck": 7617,
      "Ġmissed": 7618,
      "Ġprofessor": 7619,
      "ective": 7620,
      "ĠâĢĭ": 7621,
      "anna": 7622,
      "ĠRight": 7623,
      "Ġpresentation": 7624,
      "ĠManager": 7625,
      "rogen": 7626,
      "py": 7627,
      "Ġagents": 7628,
      "rovers": 7629,
      "Ġbowl": 7630,
      "ĠNext": 7631,
      "eping": 7632,
      "Ġextension": 7633,
      "ĠÑĢÐ°": 7634,
      "ĠNorthern": 7635,
      "Ġprompt": 7636,
      "Ġ>>": 7637,
      "ĠCamb": 7638,
      "ĠSher": 7639,
      "Ġrepeated": 7640,
      "Build": 7641,
      "ĠTem": 7642,
      "Ġexplains": 7643,
      "Ġsequence": 7644,
      "DP": 7645,
      "lyn": 7646,
      "ĠSP": 7647,
      "ĠField": 7648,
      "Ġfrag": 7649,
      "Ġdiscount": 7650,
      "ading": 7651,
      "Other": 7652,
      "Ġspin": 7653,
      "Ġvictims": 7654,
      "ĠLin": 7655,
      "isa": 7656,
      "ĠFull": 7657,
      "Ġsustainable": 7658,
      "ĠBern": 7659,
      "ĠSeason": 7660,
      "ĠOhio": 7661,
      "omy": 7662,
      "Ġimpressive": 7663,
      "front": 7664,
      "Ġaccurate": 7665,
      "Ġdesigns": 7666,
      "uous": 7667,
      "Ġrelation": 7668,
      "ĠTurn": 7669,
      "ificate": 7670,
      "Pol": 7671,
      "athe": 7672,
      "Ġtables": 7673,
      "Ġlinked": 7674,
      "bles": 7675,
      "yers": 7676,
      "Ġordered": 7677,
      "ĠAssist": 7678,
      "During": 7679,
      "Ġpra": 7680,
      "Ġbelieves": 7681,
      "ÄĻ": 7682,
      "ĠIss": 7683,
      "Ġdropped": 7684,
      "ben": 7685,
      "Ġfindings": 7686,
      "Ġrepresented": 7687,
      "quir": 7688,
      "Ġ},": 7689,
      "ĠTheatre": 7690,
      "Ġresistance": 7691,
      "inch": 7692,
      "Ġattended": 7693,
      "ureau": 7694,
      "icted": 7695,
      "Ġanswers": 7696,
      "ĠMatt": 7697,
      "Ġlandscape": 7698,
      "ped": 7699,
      "Äħ": 7700,
      "Ġperfectly": 7701,
      "pay": 7702,
      "ĠAction": 7703,
      "Ġdelight": 7704,
      "ĠPR": 7705,
      "ĠMult": 7706,
      "ĠRog": 7707,
      "Ġbrands": 7708,
      "vol": 7709,
      "Ġsick": 7710,
      "Sm": 7711,
      "Date": 7712,
      "ĠBon": 7713,
      "Ġprimarily": 7714,
      "Ġtech": 7715,
      "ditional": 7716,
      "Ġprinciples": 7717,
      "ĠBu": 7718,
      "())": 7719,
      "ĠPoint": 7720,
      "Map": 7721,
      "ĠFoot": 7722,
      "Ġvisiting": 7723,
      "enda": 7724,
      "nie": 7725,
      "AND": 7726,
      "Ġmainly": 7727,
      "Ġstudied": 7728,
      "Ġdynamic": 7729,
      "Ġsuitable": 7730,
      "ni": 7731,
      "Code": 7732,
      "uality": 7733,
      "ÑģÐºÐ¸": 7734,
      "ned": 7735,
      "wa": 7736,
      "Ġstim": 7737,
      "edu": 7738,
      "Ġregularly": 7739,
      "ĠRadio": 7740,
      "VD": 7741,
      "Ġwriters": 7742,
      "aints": 7743,
      "ennis": 7744,
      "Ġawards": 7745,
      "Ġreader": 7746,
      "onavirus": 7747,
      "base": 7748,
      "Check": 7749,
      "ugs": 7750,
      "ðŁ": 7751,
      "ournament": 7752,
      "Ġcomparison": 7753,
      "chi": 7754,
      "ĠOrder": 7755,
      "ixture": 7756,
      "ĠTerm": 7757,
      "awa": 7758,
      "ĠLabor": 7759,
      "Ġnoise": 7760,
      "config": 7761,
      "ĠTer": 7762,
      "ĠPlace": 7763,
      "ĠDate": 7764,
      "ĠSupp": 7765,
      "Ġchallenging": 7766,
      "ĠOx": 7767,
      "%.": 7768,
      "ĠSat": 7769,
      "Ġdrivers": 7770,
      "adel": 7771,
      "Ġpicked": 7772,
      "Ġtea": 7773,
      "ĠDaily": 7774,
      "Ġimmediate": 7775,
      "imental": 7776,
      "Ġtrained": 7777,
      "Ġauthent": 7778,
      "adium": 7779,
      "Ġclar": 7780,
      "appy": 7781,
      "Ġdisappoint": 7782,
      "ÐµÐ¹": 7783,
      "Ġreduction": 7784,
      "ampion": 7785,
      "Ġrelief": 7786,
      "Ġyounger": 7787,
      "ĠBrazil": 7788,
      "ĠExpl": 7789,
      "brid": 7790,
      "scale": 7791,
      "eler": 7792,
      "ĠRod": 7793,
      "Ġfrequency": 7794,
      "range": 7795,
      "ĠÂ©": 7796,
      "Ġactor": 7797,
      "Ġdating": 7798,
      "Ġscheduled": 7799,
      "ogether": 7800,
      "Also": 7801,
      "Ġathlet": 7802,
      "ĠFOR": 7803,
      "ĠClin": 7804,
      "Ġrac": 7805,
      "claim": 7806,
      "info": 7807,
      "Ġnarrow": 7808,
      "QL": 7809,
      "ĠThree": 7810,
      "ĠEs": 7811,
      "Ġreplaced": 7812,
      "ige": 7813,
      "je": 7814,
      "Ġtwe": 7815,
      "Ġapproval": 7816,
      "Ġlift": 7817,
      "User": 7818,
      "Ġprofit": 7819,
      "ando": 7820,
      "Ġplane": 7821,
      "Ġlaugh": 7822,
      "ĠNa": 7823,
      "rient": 7824,
      "Ġwearing": 7825,
      "Ġuncertain": 7826,
      "eqn": 7827,
      "Ġfeaturing": 7828,
      "Ġwebsites": 7829,
      "Who": 7830,
      "Ġsky": 7831,
      "Ġtack": 7832,
      "Ġengage": 7833,
      "vo": 7834,
      "pdf": 7835,
      "Ġrestaurants": 7836,
      "Ġinspect": 7837,
      "Ġdeals": 7838,
      "Thank": 7839,
      "Ġgrade": 7840,
      "evin": 7841,
      "Although": 7842,
      "mega": 7843,
      "ĠBal": 7844,
      "Ġflo": 7845,
      "razy": 7846,
      "ĠMinistry": 7847,
      "EP": 7848,
      "Ġguidance": 7849,
      "Ġtrail": 7850,
      "ĠCook": 7851,
      "izz": 7852,
      "][": 7853,
      "owe": 7854,
      "Ġtasks": 7855,
      "kt": 7856,
      "uting": 7857,
      "Ġfabric": 7858,
      "anged": 7859,
      "Ġmilk": 7860,
      "Ġcompris": 7861,
      "eld": 7862,
      "ĠCat": 7863,
      "image": 7864,
      "ĠNS": 7865,
      "ĠDisney": 7866,
      "aph": 7867,
      "Ġinvent": 7868,
      "ĠEth": 7869,
      "ĠTri": 7870,
      "Ġdivision": 7871,
      "Ġrecognition": 7872,
      "Ġsamples": 7873,
      "Ġexceed": 7874,
      "bel": 7875,
      "Ġrealized": 7876,
      "plete": 7877,
      "Ġinstallation": 7878,
      "Ġalongside": 7879,
      "ĠSpain": 7880,
      "Ġcounsel": 7881,
      "Ġunknown": 7882,
      "Ġatmosphere": 7883,
      "Note": 7884,
      "ĠAp": 7885,
      "ainer": 7886,
      "Ġrele": 7887,
      "block": 7888,
      "arters": 7889,
      "Ġmolec": 7890,
      "ĠJersey": 7891,
      "Pat": 7892,
      "ĠMill": 7893,
      "ĠHard": 7894,
      "oven": 7895,
      "////////": 7896,
      "Index": 7897,
      "Ġimprovement": 7898,
      "Ġbridge": 7899,
      "ĠTal": 7900,
      "expected": 7901,
      "Ġvirus": 7902,
      "Ġarmy": 7903,
      "ĠOfficer": 7904,
      "Ġbroadcast": 7905,
      "Ġarchitecture": 7906,
      "Ġstruggle": 7907,
      "?'": 7908,
      "annels": 7909,
      "mic": 7910,
      "Ġperforming": 7911,
      "orne": 7912,
      "anny": 7913,
      "ĠNick": 7914,
      "Ġelev": 7915,
      "Ġcontaining": 7916,
      "ĠUsing": 7917,
      "Rel": 7918,
      "away": 7919,
      "ĠVill": 7920,
      "Ġcontributions": 7921,
      "ĊĠĠĠĠĠĠĠĠĠĠĠĠĠĠĠĠĠĠĠĠĠĠĠĠĠĠĠ": 7922,
      "à¥": 7923,
      "Ġlistening": 7924,
      "tab": 7925,
      "Ġingredients": 7926,
      "ĠLocal": 7927,
      "df": 7928,
      "apore": 7929,
      "Ġdogs": 7930,
      "ĠPhoto": 7931,
      "Ġhabit": 7932,
      "Ġrural": 7933,
      "ifer": 7934,
      "Ġinsert": 7935,
      "Ġappreciate": 7936,
      "ĠMah": 7937,
      "Ġproposal": 7938,
      "Ġlosing": 7939,
      "Ġexposure": 7940,
      "Ġoutstanding": 7941,
      "Ġclimb": 7942,
      "erent": 7943,
      "create": 7944,
      "Model": 7945,
      "raged": 7946,
      "Ġkeeps": 7947,
      "Ġbear": 7948,
      "ĠHD": 7949,
      "Ġaccessible": 7950,
      "endment": 7951,
      "Ġgent": 7952,
      "Ġfoundation": 7953,
      "Ġcontribute": 7954,
      "Ġapps": 7955,
      "thew": 7956,
      "ĠMach": 7957,
      "Ð»ÑĮ": 7958,
      "Ġfo": 7959,
      "hemat": 7960,
      "Ġlunch": 7961,
      "ĠYet": 7962,
      "Ġadds": 7963,
      "Ġcontribution": 7964,
      "ensed": 7965,
      "inois": 7966,
      "Desc": 7967,
      "inals": 7968,
      "Ġequivalent": 7969,
      "VE": 7970,
      "Ġinterior": 7971,
      "ĠDemocratic": 7972,
      "Ġ\\,": 7973,
      "Ġrh": 7974,
      "Ġbutter": 7975,
      "Ġcutting": 7976,
      "Ġvariable": 7977,
      "VER": 7978,
      "Ġinner": 7979,
      "ologist": 7980,
      "estion": 7981,
      "ĠUr": 7982,
      "Ġfaces": 7983,
      "Ġcatal": 7984,
      "ĠConc": 7985,
      "Ġspecified": 7986,
      "Ġcarefully": 7987,
      "aa": 7988,
      "ĠCase": 7989,
      "eh": 7990,
      "Ġlies": 7991,
      "Ġoperate": 7992,
      "ĠSystems": 7993,
      "}[": 7994,
      "Ġplate": 7995,
      "Ġappointed": 7996,
      "Ġaffordable": 7997,
      "ĠGreek": 7998,
      "option": 7999,
      "Ġtickets": 8000,
      "db": 8001,
      "cling": 8002,
      "ependent": 8003,
      "lix": 8004,
      "Ġdates": 8005,
      "olid": 8006,
      "Ġpapers": 8007,
      "agraph": 8008,
      "ĠAsian": 8009,
      "Med": 8010,
      "Ġneck": 8011,
      "Ġanticip": 8012,
      "pool": 8013,
      "making": 8014,
      "Ġdiscipl": 8015,
      "bsp": 8016,
      "****************": 8017,
      "ĠInstagram": 8018,
      "Ġpayments": 8019,
      "Ġwalked": 8020,
      "Look": 8021,
      "Ġsituations": 8022,
      "Array": 8023,
      "Ġsin": 8024,
      "Ġvisited": 8025,
      "owa": 8026,
      "util": 8027,
      "ASS": 8028,
      "OU": 8029,
      "Ġsolve": 8030,
      "ĠRh": 8031,
      "Ġslowly": 8032,
      "ĠFox": 8033,
      "ĠOp": 8034,
      "ĠFord": 8035,
      "ĠÑģÑĤ": 8036,
      "Ġconstantly": 8037,
      "ĠElizabeth": 8038,
      "ĠBroad": 8039,
      "ĠArea": 8040,
      "earing": 8041,
      "Ġengaged": 8042,
      "ĠWH": 8043,
      "oval": 8044,
      "ĠSym": 8045,
      "pg": 8046,
      "ĠDoes": 8047,
      "Ġopposite": 8048,
      "ĠFred": 8049,
      "ĠScotland": 8050,
      "Ġhung": 8051,
      "ami": 8052,
      "Ġpurchased": 8053,
      "Two": 8054,
      "icide": 8055,
      "Ġpulled": 8056,
      "Ġrecognize": 8057,
      "Ġinformed": 8058,
      "ĠPerform": 8059,
      "Ġexpectations": 8060,
      "Ġenforcement": 8061,
      "Ġlights": 8062,
      "anguages": 8063,
      "ĠCL": 8064,
      "aire": 8065,
      "RS": 8066,
      "ĠPhilipp": 8067,
      "Ġyesterday": 8068,
      "Ġneither": 8069,
      "_.": 8070,
      "Ġhidden": 8071,
      "Ġmoves": 8072,
      "ĠFarm": 8073,
      "Ġhyper": 8074,
      "Ġskill": 8075,
      "ĠTax": 8076,
      "icing": 8077,
      "Ġcapture": 8078,
      "Ġriv": 8079,
      "Ġfundamental": 8080,
      "amics": 8081,
      "ĠPen": 8082,
      "âĢħ": 8083,
      "Ġillness": 8084,
      "Eng": 8085,
      "Ġorganized": 8086,
      "ylvania": 8087,
      "ds": 8088,
      "Ġmodule": 8089,
      "ĠColorado": 8090,
      "Ġparameter": 8091,
      "Ġstake": 8092,
      "Ġcreates": 8093,
      "Ġpara": 8094,
      "Ġpotentially": 8095,
      "Ġarrested": 8096,
      "ĠVideo": 8097,
      "âĢī": 8098,
      "ĠÐľ": 8099,
      "Ġunion": 8100,
      "ĊĊĉ": 8101,
      "IO": 8102,
      "Ġratio": 8103,
      "Dav": 8104,
      "Ġundert": 8105,
      "ĠUnivers": 8106,
      "ĠRose": 8107,
      "ordan": 8108,
      "Ġaside": 8109,
      "ĠKey": 8110,
      "Ġnearby": 8111,
      "una": 8112,
      "ĠKong": 8113,
      "Ġpublication": 8114,
      "Ġengagement": 8115,
      ")$.": 8116,
      "Today": 8117,
      "Ġcommunications": 8118,
      "Once": 8119,
      "Size": 8120,
      "Ġtrav": 8121,
      "Ġsurprising": 8122,
      "Ġmountain": 8123,
      "Group": 8124,
      "missions": 8125,
      "Ġconver": 8126,
      "Ġnoticed": 8127,
      "ĠStaff": 8128,
      "ĠLatin": 8129,
      "ĠCorporation": 8130,
      "Ġfestival": 8131,
      "Ġsurf": 8132,
      "center": 8133,
      "Ð»Ñı": 8134,
      "oric": 8135,
      "ete": 8136,
      "OK": 8137,
      "Ġrefuge": 8138,
      "Ġcontest": 8139,
      "Ġceleb": 8140,
      "ito": 8141,
      "ellectual": 8142,
      "Ġsuspect": 8143,
      "dy": 8144,
      "Ġbare": 8145,
      "Ġcontinuing": 8146,
      "ĠSanta": 8147,
      "MT": 8148,
      "ceived": 8149,
      "ĠHollywood": 8150,
      "Ġtechnique": 8151,
      "Ġcrucial": 8152,
      "Ġpurs": 8153,
      "burgh": 8154,
      "ĠFile": 8155,
      "Ġinjuries": 8156,
      "regon": 8157,
      ".</": 8158,
      "aret": 8159,
      "wing": 8160,
      "Ġtill": 8161,
      "ĠPA": 8162,
      "Ġseriously": 8163,
      "Ġbread": 8164,
      "Ġboot": 8165,
      "ership": 8166,
      "Ġcontained": 8167,
      "CP": 8168,
      "ĠYouTube": 8169,
      "Ð½Ñı": 8170,
      "EA": 8171,
      "Ġtracks": 8172,
      "otation": 8173,
      "aze": 8174,
      "Ġnewly": 8175,
      "ĠSong": 8176,
      "BN": 8177,
      "Ġnecessarily": 8178,
      "Ġsomewhat": 8179,
      "Ġcorresponding": 8180,
      "ĠLy": 8181,
      "Ġà¤": 8182,
      "ova": 8183,
      "^*": 8184,
      "Ġtall": 8185,
      "ĠDeath": 8186,
      "Ġmonthly": 8187,
      "Ġphenomen": 8188,
      "urities": 8189,
      "Ġdealing": 8190,
      "Ġpainting": 8191,
      "ista": 8192,
      "Ġpercentage": 8193,
      "ĠArticle": 8194,
      "Ġthousand": 8195,
      "Mark": 8196,
      "Ġwheel": 8197,
      "ĠBlog": 8198,
      "ĠCapital": 8199,
      "Ġbreath": 8200,
      "worth": 8201,
      "ĠWars": 8202,
      "Ġinvolving": 8203,
      "Even": 8204,
      "Ġfaculty": 8205,
      "Ġconscious": 8206,
      "emplate": 8207,
      "Ð¡": 8208,
      "ĠBang": 8209,
      "Ġhate": 8210,
      "web": 8211,
      "ĠFac": 8212,
      "obby": 8213,
      "Ġflag": 8214,
      "aud": 8215,
      "Ġinstruction": 8216,
      "iami": 8217,
      "Ġversions": 8218,
      "olean": 8219,
      "Ġoutdoor": 8220,
      "){": 8221,
      "HA": 8222,
      "heim": 8223,
      "Ġglad": 8224,
      "Ġgranted": 8225,
      "Ġpip": 8226,
      "ART": 8227,
      "ĠBad": 8228,
      "ĠRyan": 8229,
      "Ġexclusive": 8230,
      "isition": 8231,
      "Ġax": 8232,
      "Ġdrawn": 8233,
      "Ġwal": 8234,
      "Ġapproaches": 8235,
      "ocated": 8236,
      "ĠComput": 8237,
      "Ã¶r": 8238,
      "ĠEastern": 8239,
      "Ġabsor": 8240,
      "ĠRon": 8241,
      "Ġintegrated": 8242,
      "Ġadventure": 8243,
      "ĠCub": 8244,
      "Ġ);": 8245,
      "Ġliquid": 8246,
      "Ġregistration": 8247,
      "tle": 8248,
      "Ġpresents": 8249,
      "Ġadopted": 8250,
      "Ġexhibition": 8251,
      "ULL": 8252,
      "Ġenthus": 8253,
      "Ġbehalf": 8254,
      "Ġsurprised": 8255,
      "Ġchampions": 8256,
      "Ð²Ð¸": 8257,
      "ĠâĤ¬": 8258,
      "aturally": 8259,
      "awn": 8260,
      "Ġscr": 8261,
      "Photo": 8262,
      "Ġfinance": 8263,
      "/>": 8264,
      "ĠChem": 8265,
      "Ġelections": 8266,
      "Ġvit": 8267,
      "init": 8268,
      "ĠBible": 8269,
      "Ġmac": 8270,
      "Ġprospect": 8271,
      "}}\\": 8272,
      "ĠLuc": 8273,
      "owing": 8274,
      "Mus": 8275,
      "det": 8276,
      "Ġobviously": 8277,
      "Ġ__": 8278,
      "ditionally": 8279,
      "ĠRun": 8280,
      "ĠGuard": 8281,
      "ĠAdam": 8282,
      "oured": 8283,
      "Ġmonitoring": 8284,
      "upp": 8285,
      "cit": 8286,
      "uris": 8287,
      "Ġtaxes": 8288,
      "Ġreward": 8289,
      "Ġtransportation": 8290,
      "ĠBerlin": 8291,
      "Ġsubjects": 8292,
      "Ġpermanent": 8293,
      "Ġunderstood": 8294,
      "erning": 8295,
      "Conn": 8296,
      "Ġdeaths": 8297,
      "ĠAgency": 8298,
      "Ġmob": 8299,
      "Ġprotest": 8300,
      "folio": 8301,
      "Ġzone": 8302,
      "news": 8303,
      "Ġassociation": 8304,
      "Ġcelebrate": 8305,
      "PL": 8306,
      "Ġq": 8307,
      "Ġtor": 8308,
      "Ġmarked": 8309,
      "Å¾": 8310,
      "Ġalleg": 8311,
      "Ġsoil": 8312,
      "Ġawesome": 8313,
      "Ġdies": 8314,
      "Ġdans": 8315,
      "ĠÐ³Ð¾Ð´": 8316,
      "etch": 8317,
      "inking": 8318,
      "Ġexplan": 8319,
      "Wind": 8320,
      "Ġreliable": 8321,
      "Ġdiversity": 8322,
      "iac": 8323,
      "Ġhell": 8324,
      "ĠSwed": 8325,
      "Ġtiss": 8326,
      "olis": 8327,
      "Ġinterf": 8328,
      "sect": 8329,
      "alo": 8330,
      "Ġfairly": 8331,
      "\"\"": 8332,
      "ĠJews": 8333,
      "overty": 8334,
      "Ġlimits": 8335,
      "Ġoperator": 8336,
      "oga": 8337,
      "ĠÑĢ": 8338,
      "Ġalive": 8339,
      "Ġinvited": 8340,
      "Ġheads": 8341,
      "last": 8342,
      "Ġliked": 8343,
      "after": 8344,
      "Ġdensity": 8345,
      "ilst": 8346,
      "Ġages": 8347,
      "Ġpromise": 8348,
      "Ġrose": 8349,
      "ĠWorks": 8350,
      "ĠViet": 8351,
      "aus": 8352,
      "Ġinstructions": 8353,
      "Ġloop": 8354,
      "han": 8355,
      "ĠSoft": 8356,
      "Ġconsequences": 8357,
      "ĠCommon": 8358,
      "tical": 8359,
      "cers": 8360,
      "ĠAnth": 8361,
      "Ġcontrovers": 8362,
      "ĠSaint": 8363,
      "doi": 8364,
      "Ġsubmitted": 8365,
      "Ret": 8366,
      "Vis": 8367,
      "Ġsuffering": 8368,
      "ategory": 8369,
      "Ġplatforms": 8370,
      "Ġalign": 8371,
      "aser": 8372,
      "Ġdepends": 8373,
      "ĠAccount": 8374,
      "Ġgap": 8375,
      "Ġoutcomes": 8376,
      "ĠPract": 8377,
      "Char": 8378,
      "Call": 8379,
      "pes": 8380,
      "Point": 8381,
      "source": 8382,
      "Ġcategories": 8383,
      "Ġlect": 8384,
      "IB": 8385,
      "RL": 8386,
      "Ġcleaning": 8387,
      "Ċĉĉĉĉĉĉ": 8388,
      "Ġprincipal": 8389,
      "ĠRetrieved": 8390,
      "Ġbrill": 8391,
      "Up": 8392,
      "first": 8393,
      "Ð¾ÑģÑĤ": 8394,
      "agen": 8395,
      "Ġstrange": 8396,
      "len": 8397,
      "Ġscope": 8398,
      "Ġrear": 8399,
      "pie": 8400,
      "owed": 8401,
      "Ġsinger": 8402,
      "button": 8403,
      "uis": 8404,
      "His": 8405,
      "has": 8406,
      "Ġbuff": 8407,
      "ĠHim": 8408,
      "aka": 8409,
      "ĠMethod": 8410,
      "world": 8411,
      "MC": 8412,
      "ĠNations": 8413,
      "Ġmir": 8414,
      "ido": 8415,
      "Ġgovernments": 8416,
      "ĠSuch": 8417,
      "ĠRoom": 8418,
      "Ġstrict": 8419,
      "ypes": 8420,
      "Ġbomb": 8421,
      "Ġdiam": 8422,
      "Ġerrors": 8423,
      "wind": 8424,
      "Ġsessions": 8425,
      "ĠEric": 8426,
      "Ġorganis": 8427,
      "Ke": 8428,
      "sqrt": 8429,
      "ventional": 8430,
      "Ġfirms": 8431,
      "allel": 8432,
      "sylvania": 8433,
      "Previous": 8434,
      "opher": 8435,
      "Tags": 8436,
      "riers": 8437,
      "Ġquery": 8438,
      "Ġairport": 8439,
      "Ġcontrolled": 8440,
      "!!!": 8441,
      "ĠLew": 8442,
      "ĠCarl": 8443,
      "rary": 8444,
      "Ġstrike": 8445,
      "Mon": 8446,
      "ĠAsh": 8447,
      "Ġconstit": 8448,
      "Ġdriven": 8449,
      "Ġstd": 8450,
      "Ġlegend": 8451,
      "ĠStock": 8452,
      "raction": 8453,
      "Lay": 8454,
      "Ġdestination": 8455,
      "Ġamounts": 8456,
      "Off": 8457,
      "Ġsought": 8458,
      "Ġlovely": 8459,
      "Ġbat": 8460,
      "oup": 8461,
      "ĠWales": 8462,
      "organ": 8463,
      "ĠSpirit": 8464,
      "Ġscored": 8465,
      "Ġtiny": 8466,
      "ĠPlus": 8467,
      "%,": 8468,
      "dep": 8469,
      "GA": 8470,
      "ĠHarry": 8471,
      "Ġintroduction": 8472,
      "Ġram": 8473,
      "~~": 8474,
      "Ġformation": 8475,
      "ĠBox": 8476,
      "rizona": 8477,
      "ĠEconomic": 8478,
      "ĠKent": 8479,
      "ials": 8480,
      "spe": 8481,
      "Ġindicate": 8482,
      "Ġrecipe": 8483,
      "ĠCru": 8484,
      "Ġoutcome": 8485,
      "Ġaband": 8486,
      "fall": 8487,
      "Ġsegment": 8488,
      "isted": 8489,
      "Ġimproving": 8490,
      "iable": 8491,
      "swe": 8492,
      "ĠClick": 8493,
      "udes": 8494,
      "reement": 8495,
      "Ġpul": 8496,
      "[]": 8497,
      "Ġoffices": 8498,
      "Stud": 8499,
      "Ãª": 8500,
      "Ġfraud": 8501,
      "efully": 8502,
      "ishop": 8503,
      "Ġwra": 8504,
      "Ġuniform": 8505,
      "Ġhurt": 8506,
      "Ġsilver": 8507,
      "ĠBul": 8508,
      "Ġrepresentation": 8509,
      "Ġneighb": 8510,
      "ĠLes": 8511,
      "result": 8512,
      "Ġpublis": 8513,
      "Ġru": 8514,
      "ouston": 8515,
      "Ġrising": 8516,
      "^{(": 8517,
      "Ġhur": 8518,
      "Ġstrongly": 8519,
      "Ġresc": 8520,
      "Ġorganic": 8521,
      "Ġinitiative": 8522,
      "Ġillegal": 8523,
      "Ġvess": 8524,
      "ĠPut": 8525,
      "ortion": 8526,
      "Ġending": 8527,
      "Ġmachines": 8528,
      "/**": 8529,
      "Ġsi": 8530,
      "Ġconsideration": 8531,
      "Ġbasically": 8532,
      "onna": 8533,
      "ÃŁ": 8534,
      "ÐµÐº": 8535,
      "heast": 8536,
      "desc": 8537,
      "Ġfeelings": 8538,
      "Ġcontrols": 8539,
      "Param": 8540,
      "pling": 8541,
      "owntown": 8542,
      "Ġcrack": 8543,
      "ĠLind": 8544,
      "Ġdrawing": 8545,
      "Ġescape": 8546,
      "Ġscenes": 8547,
      "Ġtalked": 8548,
      "ĠBall": 8549,
      "Ġhopes": 8550,
      "xx": 8551,
      "Ġbroke": 8552,
      "ĠPrince": 8553,
      "Ġguarantee": 8554,
      "mal": 8555,
      "Ġurg": 8556,
      "ĠVice": 8557,
      "ĠAvenue": 8558,
      "ĠEmp": 8559,
      "rep": 8560,
      "Ġfiction": 8561,
      "Ġmanaging": 8562,
      "cap": 8563,
      "estyle": 8564,
      "Ġpointed": 8565,
      "uties": 8566,
      "Ġprime": 8567,
      "Ġdiseases": 8568,
      "ĠDNA": 8569,
      "enter": 8570,
      "ĠDun": 8571,
      "ĠMarg": 8572,
      "Ġ:=": 8573,
      "arry": 8574,
      "including": 8575,
      "rolled": 8576,
      "rell": 8577,
      "ector": 8578,
      "Ġec": 8579,
      "ĠEmer": 8580,
      "Ġvisible": 8581,
      "ĠMP": 8582,
      "angers": 8583,
      "Ġopposition": 8584,
      "names": 8585,
      "Ġpump": 8586,
      "Ġmyst": 8587,
      "FO": 8588,
      "stal": 8589,
      "urse": 8590,
      "Ġsolo": 8591,
      "ĠHo": 8592,
      "Ġextreme": 8593,
      "aded": 8594,
      "dim": 8595,
      "Ġparticipation": 8596,
      "itis": 8597,
      "Ġrein": 8598,
      "bled": 8599,
      "Ġmagic": 8600,
      "vision": 8601,
      "prot": 8602,
      "otten": 8603,
      "angle": 8604,
      "Ġfoods": 8605,
      "oker": 8606,
      "Ġraw": 8607,
      "Ġevaluation": 8608,
      "nbsp": 8609,
      "vare": 8610,
      "onder": 8611,
      "include": 8612,
      "ĠDid": 8613,
      "ĠChange": 8614,
      "Direct": 8615,
      "Ġrig": 8616,
      "Ġnations": 8617,
      "Ġsheet": 8618,
      "break": 8619,
      "ĠEff": 8620,
      "Ġaccordance": 8621,
      "ĠIl": 8622,
      "Ġtrends": 8623,
      "Ġmeal": 8624,
      "ĠIllinois": 8625,
      "Ġinitially": 8626,
      "Ġdrama": 8627,
      "Ġapparently": 8628,
      "ori": 8629,
      "orable": 8630,
      "sex": 8631,
      "Ġreputation": 8632,
      "Ġsaved": 8633,
      "iology": 8634,
      "ĠHoly": 8635,
      "Ġentitled": 8636,
      "Ext": 8637,
      "rivacy": 8638,
      "ĠStudents": 8639,
      "Ġsections": 8640,
      "ĠDavis": 8641,
      "Ġyellow": 8642,
      "Ġalert": 8643,
      "ĠProm": 8644,
      "ĠCa": 8645,
      "pense": 8646,
      "ocial": 8647,
      "Ġjoining": 8648,
      "Ġpleased": 8649,
      "fa": 8650,
      "News": 8651,
      "axy": 8652,
      "Ġ()": 8653,
      "Ġapplicable": 8654,
      "Ġyards": 8655,
      "Ġstable": 8656,
      "ulpt": 8657,
      "mo": 8658,
      "Ġhits": 8659,
      "ĠMD": 8660,
      "define": 8661,
      "Ġwatched": 8662,
      "ailability": 8663,
      "ĠAge": 8664,
      "ĠHu": 8665,
      "Ġconcrete": 8666,
      "pton": 8667,
      "whel": 8668,
      "Ġconsists": 8669,
      "Ġsoldiers": 8670,
      "Ġsees": 8671,
      "Ġbatt": 8672,
      "Start": 8673,
      "Ġreturning": 8674,
      "Ġbike": 8675,
      "Ġhasn": 8676,
      "ĠSenior": 8677,
      "ĠLic": 8678,
      "ĠPack": 8679,
      "ME": 8680,
      "Ġgiant": 8681,
      "Ġbirthday": 8682,
      "Ġdoctors": 8683,
      "oviet": 8684,
      "ĠWilson": 8685,
      "End": 8686,
      "Ġcompare": 8687,
      "ilty": 8688,
      "ĠCON": 8689,
      "ĠBuilding": 8690,
      "Ġdismiss": 8691,
      "Ġprotocol": 8692,
      "Ġindustries": 8693,
      "!--": 8694,
      "iley": 8695,
      "Ġsouthern": 8696,
      "iously": 8697,
      "ĠCapt": 8698,
      "Ġaffili": 8699,
      "ĠParliament": 8700,
      "yr": 8701,
      "ĠImm": 8702,
      "Ġsomewhere": 8703,
      "TP": 8704,
      "Ġtrib": 8705,
      "Ġfunny": 8706,
      "ĠDemocrats": 8707,
      "ĠJenn": 8708,
      "ÅĻ": 8709,
      "ĠBru": 8710,
      "Ġcrash": 8711,
      "Ġdump": 8712,
      "Ġimplemented": 8713,
      "ĠStephen": 8714,
      "Ġattached": 8715,
      "Ġstead": 8716,
      "ĠModern": 8717,
      "Ġlawyer": 8718,
      "iser": 8719,
      "Ġproducing": 8720,
      "Jo": 8721,
      "Christ": 8722,
      "Ġpriority": 8723,
      "Ġticket": 8724,
      "Message": 8725,
      "elcome": 8726,
      "letter": 8727,
      "ĠLA": 8728,
      "Ġthorough": 8729,
      "Ġpremium": 8730,
      "Ġcausing": 8731,
      "Ã¡n": 8732,
      "Ġinject": 8733,
      "Ġchannels": 8734,
      "Ġregime": 8735,
      "Ġmatches": 8736,
      "gov": 8737,
      "Ġwarrant": 8738,
      "ĠModel": 8739,
      "aux": 8740,
      "Ġreact": 8741,
      "ĠLink": 8742,
      "Ġchose": 8743,
      "ĠHT": 8744,
      "ĠHeart": 8745,
      "yard": 8746,
      "mony": 8747,
      "strong": 8748,
      "iot": 8749,
      "Ġtum": 8750,
      "anth": 8751,
      "ospitals": 8752,
      "Ġcompliance": 8753,
      "Ġapartment": 8754,
      "Ġsuddenly": 8755,
      "etts": 8756,
      "ĠFriend": 8757,
      "ĠCert": 8758,
      "ĠReturn": 8759,
      "assert": 8760,
      "Ġpersonally": 8761,
      "Work": 8762,
      "Ġdiscrim": 8763,
      "rator": 8764,
      "Ġcooking": 8765,
      "ouch": 8766,
      "orph": 8767,
      "acher": 8768,
      "Ġproducer": 8769,
      "Ġlikes": 8770,
      "Ġindicated": 8771,
      "erk": 8772,
      "model": 8773,
      "ERE": 8774,
      "Ġconcerning": 8775,
      "ĠLine": 8776,
      "Ġspr": 8777,
      "ĠSingapore": 8778,
      "Ġconnections": 8779,
      "Ġproport": 8780,
      "Ġbranch": 8781,
      "Ġfounder": 8782,
      "ĠCond": 8783,
      "ĠPers": 8784,
      "Ġunus": 8785,
      "ĠStill": 8786,
      "rot": 8787,
      "Ġpermission": 8788,
      "LS": 8789,
      "Ġchart": 8790,
      "ĠSav": 8791,
      "Ġcookies": 8792,
      "Ġdeclared": 8793,
      "ĠToronto": 8794,
      "ĠNever": 8795,
      "Ġjun": 8796,
      "ĠAffairs": 8797,
      "Ġgene": 8798,
      "Ġsending": 8799,
      ")$,": 8800,
      "ĠPennsylvania": 8801,
      "Ġtab": 8802,
      "ĠNic": 8803,
      "ĠPartners": 8804,
      "ĠLady": 8805,
      "ools": 8806,
      "ĠWhether": 8807,
      "Ġdeeply": 8808,
      "ĠKat": 8809,
      "iah": 8810,
      "ĠiPhone": 8811,
      "bsite": 8812,
      "ĠConnect": 8813,
      "Ġvaccine": 8814,
      "Ġgal": 8815,
      "Ġacquired": 8816,
      "Ġconsumption": 8817,
      "Ġthin": 8818,
      "Ġshipping": 8819,
      "ĠĠĠĠĠĠĠĠĠĠĠĠĠĠĠĠĠĠĠĠĠĠĠĠĠĠĠĠĠĠĠĠ": 8820,
      "ĠMagazine": 8821,
      "abil": 8822,
      "ĠVen": 8823,
      "Ġwrites": 8824,
      "Ġseasons": 8825,
      "Ġcarrying": 8826,
      "Ġkne": 8827,
      "ĠChapter": 8828,
      "Ġrequests": 8829,
      "aza": 8830,
      "/*": 8831,
      "Hist": 8832,
      "MM": 8833,
      "Ġlaid": 8834,
      "ĠForeign": 8835,
      "ĠDead": 8836,
      "Ġbreakfast": 8837,
      "Ċĉĉĉĉĉ": 8838,
      "Ġexposed": 8839,
      "ĠBol": 8840,
      "Ġstored": 8841,
      "Ġbreaking": 8842,
      "ĠColumbia": 8843,
      "Ġaccused": 8844,
      "ĠIslam": 8845,
      "Ġchat": 8846,
      "Ġdeploy": 8847,
      "Ġemissions": 8848,
      "ĠTravel": 8849,
      "Ġwarning": 8850,
      "Ġcapabilities": 8851,
      "Ġvice": 8852,
      "Hel": 8853,
      "Ġoccurs": 8854,
      "reated": 8855,
      "ĠGallery": 8856,
      "ĠUkraine": 8857,
      "adelph": 8858,
      "erd": 8859,
      "Client": 8860,
      "pson": 8861,
      "ÐŁ": 8862,
      "ĠSn": 8863,
      "local": 8864,
      "Ġgate": 8865,
      "ĠCP": 8866,
      "bell": 8867,
      "Ġdining": 8868,
      "ĠTurkey": 8869,
      "Ġinsight": 8870,
      "Ġbeer": 8871,
      "Ġappointment": 8872,
      "Ġly": 8873,
      "oly": 8874,
      "])": 8875,
      "Ġproven": 8876,
      "ĠCN": 8877,
      "atin": 8878,
      "Ġpitch": 8879,
      "roduction": 8880,
      "Ġsmile": 8881,
      "Ġcourts": 8882,
      "Ġperformances": 8883,
      "Ġcharacteristics": 8884,
      "Ġcolleagues": 8885,
      "Ġeligible": 8886,
      "ika": 8887,
      "DR": 8888,
      "Web": 8889,
      "ĠAI": 8890,
      "Ġhoping": 8891,
      "asant": 8892,
      "Oct": 8893,
      "ĠBase": 8894,
      "Ġobjective": 8895,
      "ĠTrade": 8896,
      "Ġcriteria": 8897,
      "Ġreserved": 8898,
      "Ġcovering": 8899,
      "ĠAirport": 8900,
      "Ġgrass": 8901,
      "UE": 8902,
      "Ġenemy": 8903,
      "}_{\\": 8904,
      "ĠHong": 8905,
      "tex": 8906,
      "ĠPrinc": 8907,
      "cs": 8908,
      "otted": 8909,
      "Ġdust": 8910,
      "Ġfaced": 8911,
      "Ġbrowser": 8912,
      "Ġkilling": 8913,
      "Ġcompos": 8914,
      "Ġabsolute": 8915,
      "ieties": 8916,
      "Cal": 8917,
      "alty": 8918,
      "Ġcombat": 8919,
      "Ġinfection": 8920,
      "subsection": 8921,
      "Ġguidelines": 8922,
      "ĠCro": 8923,
      "ĠRome": 8924,
      "Ġwet": 8925,
      "GO": 8926,
      "Ð´Ð°": 8927,
      "emb": 8928,
      "Ġevil": 8929,
      "Ġinvolves": 8930,
      "Ġattempts": 8931,
      "Ġloans": 8932,
      "istent": 8933,
      "achelor": 8934,
      "sters": 8935,
      "Ġconfident": 8936,
      "Ġsecondary": 8937,
      "Ġdistributed": 8938,
      "Ġfro": 8939,
      "âĢ¦.": 8940,
      "Ġdescribes": 8941,
      "Ġconfiguration": 8942,
      "Ġmemories": 8943,
      "ĠMiller": 8944,
      "ĠNFL": 8945,
      "Ġvoters": 8946,
      "owers": 8947,
      "Ġextend": 8948,
      "ĠHas": 8949,
      "ĠFall": 8950,
      "craft": 8951,
      "Ġexpenses": 8952,
      "Ġtemplate": 8953,
      "endo": 8954,
      "Ġseed": 8955,
      "edge": 8956,
      "Ġlinear": 8957,
      "Ġprovision": 8958,
      "Ġvel": 8959,
      "Ġsuffered": 8960,
      "AF": 8961,
      "ĠFather": 8962,
      "Ġtherm": 8963,
      "Ġextends": 8964,
      "ĠBa": 8965,
      "Ġassault": 8966,
      "oked": 8967,
      "disc": 8968,
      "Stream": 8969,
      "abetes": 8970,
      "Ġbathroom": 8971,
      "ĠBand": 8972,
      "ĠBat": 8973,
      "ĠBush": 8974,
      "adelphia": 8975,
      "aping": 8976,
      "ĠRand": 8977,
      "ĠBrian": 8978,
      "ĠWas": 8979,
      "Fe": 8980,
      "Ġstations": 8981,
      "Ġinspiration": 8982,
      "false": 8983,
      "ĠBell": 8984,
      "Ġvoc": 8985,
      "Ġmembership": 8986,
      "novation": 8987,
      "Ġdish": 8988,
      "Ġinteraction": 8989,
      "Ġelectricity": 8990,
      "Ġsupplies": 8991,
      "Ġfavourite": 8992,
      "Ġsentence": 8993,
      "Ġqualified": 8994,
      "ĠSummer": 8995,
      "Ġclothes": 8996,
      "ĠRecords": 8997,
      "build": 8998,
      "being": 8999,
      "Ġchildhood": 9000,
      "GL": 9001,
      "Ġgrav": 9002,
      "Ġproved": 9003,
      "Method": 9004,
      "oln": 9005,
      "elson": 9006,
      "ĠDark": 9007,
      "Ġpit": 9008,
      "psilon": 9009,
      "ushing": 9010,
      "Ġconstra": 9011,
      "ĠDO": 9012,
      "Ġpermit": 9013,
      "Ġarguments": 9014,
      "Ġdomin": 9015,
      "Ġadj": 9016,
      "uffer": 9017,
      "aug": 9018,
      "Ġphr": 9019,
      "Tag": 9020,
      "Ġstretch": 9021,
      "ificial": 9022,
      "Ġaims": 9023,
      "ĠJane": 9024,
      "Ġprinciple": 9025,
      "doc": 9026,
      "irk": 9027,
      "Ġwestern": 9028,
      "ĠDespite": 9029,
      "People": 9030,
      "Ġtrick": 9031,
      "apse": 9032,
      "Ġinfect": 9033,
      "rightarrow": 9034,
      "ĠRoll": 9035,
      "ĠIslamic": 9036,
      "Content": 9037,
      "ĠCurrent": 9038,
      "Ġrecommendations": 9039,
      "Ġanyway": 9040,
      "umps": 9041,
      "ĠSyria": 9042,
      "Ġnarrative": 9043,
      "Ã©t": 9044,
      "Ġfolks": 9045,
      "UI": 9046,
      "Ġreducing": 9047,
      "ĠType": 9048,
      "ĠNAS": 9049,
      "Ø§": 9050,
      "rane": 9051,
      "Ġmeasured": 9052,
      "hist": 9053,
      "Aut": 9054,
      "ĠEdition": 9055,
      "lers": 9056,
      "Ġconclusion": 9057,
      "igrants": 9058,
      "rox": 9059,
      "Ġinhib": 9060,
      "Ġocean": 9061,
      "Ġcm": 9062,
      "Ġreplacement": 9063,
      "Ġfarmers": 9064,
      "ĠSite": 9065,
      "ĠMiami": 9066,
      "eqnarray": 9067,
      "psi": 9068,
      "Ġweren": 9069,
      "Ġsurve": 9070,
      "ĠJean": 9071,
      "Ġmoral": 9072,
      "Ġdipl": 9073,
      "Ġcha": 9074,
      "achus": 9075,
      "Ġmyth": 9076,
      "Ġmaps": 9077,
      "Ġlessons": 9078,
      "ĠContact": 9079,
      "Ġnewspaper": 9080,
      "ĠMs": 9081,
      "Ð¾Ð·": 9082,
      "Ġprohib": 9083,
      "ĠEss": 9084,
      "Ġkil": 9085,
      "Ġactors": 9086,
      "ĠOrig": 9087,
      "AY": 9088,
      "Ġsup": 9089,
      "Ġseats": 9090,
      "Ġcheese": 9091,
      "rypt": 9092,
      "lot": 9093,
      "Node": 9094,
      "Property": 9095,
      "Ġflowers": 9096,
      "anchester": 9097,
      "OST": 9098,
      "Ġinstitution": 9099,
      "ĠGi": 9100,
      "Ġnorthern": 9101,
      "nesota": 9102,
      "KE": 9103,
      "ardens": 9104,
      "ailing": 9105,
      "Ġgenu": 9106,
      "ennes": 9107,
      "ĠObject": 9108,
      "Ġbirds": 9109,
      "ĠArizona": 9110,
      "ĠLow": 9111,
      "Ġnormally": 9112,
      "onds": 9113,
      "Ġtox": 9114,
      "Ġgolf": 9115,
      "query": 9116,
      "agan": 9117,
      "&\\": 9118,
      "Ġloves": 9119,
      "ĠEvent": 9120,
      "Ġdrinking": 9121,
      "Ġhole": 9122,
      "Ġminim": 9123,
      "ĠFuture": 9124,
      "aste": 9125,
      "Ġroy": 9126,
      "ĠSafety": 9127,
      "igate": 9128,
      "Ġflour": 9129,
      "ĠBBC": 9130,
      "Ġ->": 9131,
      "Ġfifth": 9132,
      "site": 9133,
      "Ġprogramming": 9134,
      "ĠDam": 9135,
      "aya": 9136,
      "Min": 9137,
      "ĠVeg": 9138,
      "uv": 9139,
      "Ġintegration": 9140,
      "ĠÐĲ": 9141,
      "Response": 9142,
      "Ġbedroom": 9143,
      "}^{\\": 9144,
      "ACK": 9145,
      "only": 9146,
      "ĠMap": 9147,
      "Ġbrilliant": 9148,
      "Dec": 9149,
      "ĠRequ": 9150,
      "Ġcenters": 9151,
      "ĠPS": 9152,
      "ãĥ": 9153,
      "ĠĊĠ": 9154,
      "uct": 9155,
      "igious": 9156,
      "dev": 9157,
      "pled": 9158,
      "ãĤ": 9159,
      "Ġchocolate": 9160,
      "Ġrepresentative": 9161,
      "Ġconsent": 9162,
      "android": 9163,
      "boy": 9164,
      "ĠÐ»": 9165,
      "aska": 9166,
      "utter": 9167,
      "Ġacknowled": 9168,
      "ĠÐµ": 9169,
      "ĠSep": 9170,
      "weet": 9171,
      "iem": 9172,
      "iva": 9173,
      "called": 9174,
      "afe": 9175,
      "Ã¡s": 9176,
      "Ġwins": 9177,
      "Ġlanguages": 9178,
      "conn": 9179,
      "Ġpeak": 9180,
      "ÑĸÐ²": 9181,
      "Ġbench": 9182,
      "args": 9183,
      "Ġdistingu": 9184,
      "Ġluxury": 9185,
      "bin": 9186,
      "Down": 9187,
      "Ġstages": 9188,
      "ĠDE": 9189,
      "ĠContin": 9190,
      "uracy": 9191,
      "ĠOxford": 9192,
      "Ġweekly": 9193,
      "Ġphotograp": 9194,
      "Ġcommonly": 9195,
      "ĠOS": 9196,
      "ĠCooper": 9197,
      "found": 9198,
      "odge": 9199,
      "ĠSoviet": 9200,
      "Ġteeth": 9201,
      "itting": 9202,
      "Ġpace": 9203,
      "Ġimper": 9204,
      "Ġresponses": 9205,
      "cup": 9206,
      "makers": 9207,
      "ĠSS": 9208,
      "Ġexclud": 9209,
      "ĠAdvis": 9210,
      "main": 9211,
      "roke": 9212,
      "eness": 9213,
      "Ġflash": 9214,
      "Ġmerely": 9215,
      "olly": 9216,
      "uer": 9217,
      "Ġshoes": 9218,
      "ĠForest": 9219,
      "Ġentity": 9220,
      "Ġsubsid": 9221,
      "rett": 9222,
      "ÐµÑģÑĤ": 9223,
      "ĠÐ¾Ð±": 9224,
      "ĠĠĠĠĠĠĠĠĠĠ": 9225,
      "isher": 9226,
      "achusetts": 9227,
      "Ġease": 9228,
      "otion": 9229,
      "ĊĊĊ": 9230,
      "itzer": 9231,
      "David": 9232,
      "uns": 9233,
      "ĠText": 9234,
      "berry": 9235,
      "etary": 9236,
      "Ġresidential": 9237,
      "rend": 9238,
      "Ġanniversary": 9239,
      "irtual": 9240,
      "yo": 9241,
      "unter": 9242,
      "Ġ(!": 9243,
      "itarian": 9244,
      "Ġconvenient": 9245,
      "Before": 9246,
      "Det": 9247,
      "char": 9248,
      "Ġoch": 9249,
      "Best": 9250,
      "Ġoverwhel": 9251,
      "Ġmarks": 9252,
      "Ġbelief": 9253,
      "Ġprivile": 9254,
      "fraid": 9255,
      "height": 9256,
      "entry": 9257,
      "Ġrecover": 9258,
      "ĠBrother": 9259,
      "Dep": 9260,
      "ĠSearch": 9261,
      "ĠHop": 9262,
      "ĠUt": 9263,
      "Ġele": 9264,
      "Ñĳ": 9265,
      "Head": 9266,
      "Äģ": 9267,
      "Ġfunctional": 9268,
      "ĠStudy": 9269,
      "ĠHitler": 9270,
      "Ġble": 9271,
      "har": 9272,
      "Ġregardless": 9273,
      "anes": 9274,
      "Ġprovisions": 9275,
      "Ġrapidly": 9276,
      "ensional": 9277,
      "Ġcooperation": 9278,
      "Ġhoriz": 9279,
      "inar": 9280,
      "ĠBiden": 9281,
      "Ġestimate": 9282,
      "Ġgained": 9283,
      "ĠSC": 9284,
      "Ġliterally": 9285,
      "tics": 9286,
      "Ġjack": 9287,
      "ĠSmall": 9288,
      "ĠGolden": 9289,
      "Ġdiscovery": 9290,
      "Ġein": 9291,
      "Ġexplo": 9292,
      "Ġfranch": 9293,
      "lessly": 9294,
      "Ġtut": 9295,
      "otype": 9296,
      "ppers": 9297,
      "ĠÐ¾ÑĤ": 9298,
      "rows": 9299,
      "Ġhardware": 9300,
      "ishment": 9301,
      "Ġafraid": 9302,
      "Ġshell": 9303,
      "cul": 9304,
      "Ġspectrum": 9305,
      "Ġmg": 9306,
      "Ġrequirement": 9307,
      "Ã¢": 9308,
      "ĠÐ¿ÑĢÐ¸": 9309,
      "Ġeveryday": 9310,
      "Ġforever": 9311,
      "Ġshouldn": 9312,
      "INE": 9313,
      "Ġexpanded": 9314,
      "atern": 9315,
      "Ġinteract": 9316,
      "ĠAfghan": 9317,
      "ĠSche": 9318,
      "Ġfault": 9319,
      "ĠEN": 9320,
      "iffs": 9321,
      "Ġblocks": 9322,
      "Ġopens": 9323,
      "ĠGrant": 9324,
      "Ġmunicip": 9325,
      "ĠMember": 9326,
      "ĠClinton": 9327,
      "Ġdelicious": 9328,
      "ĠSky": 9329,
      "ĠPict": 9330,
      "ĠIde": 9331,
      "cr": 9332,
      "omic": 9333,
      "Ġinches": 9334,
      "Under": 9335,
      "Ġtitles": 9336,
      ">>": 9337,
      "Ġrum": 9338,
      "Ġgentle": 9339,
      "ĠJordan": 9340,
      "Ġvoting": 9341,
      "Ġlighting": 9342,
      "DT": 9343,
      "Open": 9344,
      "rer": 9345,
      ")=": 9346,
      "allas": 9347,
      "Ġlists": 9348,
      "Ġessentially": 9349,
      "Ġdesired": 9350,
      "Ġpersonnel": 9351,
      "ĠTech": 9352,
      "Each": 9353,
      "ĠDream": 9354,
      "Ġstronger": 9355,
      "---": 9356,
      "Ġtransaction": 9357,
      "ĠAnton": 9358,
      "ĠCR": 9359,
      "ĠEditor": 9360,
      "Ġbehaviour": 9361,
      "Ġcontinuous": 9362,
      "ROM": 9363,
      "Ġdemands": 9364,
      "static": 9365,
      "ĠTreat": 9366,
      "ramework": 9367,
      "ĠSarah": 9368,
      "Ġcasino": 9369,
      "ĠCulture": 9370,
      "caption": 9371,
      "Ġtomorrow": 9372,
      "ĠHouston": 9373,
      "current": 9374,
      "ourse": 9375,
      "di": 9376,
      "Ġadmitted": 9377,
      "ĠEX": 9378,
      "ĠGil": 9379,
      "Ġfalling": 9380,
      "Ġcompensation": 9381,
      "ĠÐĳ": 9382,
      "ĠDer": 9383,
      "Ġemployed": 9384,
      "Ġblind": 9385,
      "Ġintention": 9386,
      "Ġlad": 9387,
      "Prov": 9388,
      "Ġinvestments": 9389,
      "Ġvend": 9390,
      "Ġmargin": 9391,
[...]
